{
  "version": "1.0",
  "truncation": {
    "direction": "Right",
    "max_length": 32,
    "strategy": "LongestFirst",
    "stride": 0
  },
  "padding": {
    "strategy": {
      "Fixed": 32
    },
    "direction": "Right",
    "pad_to_multiple_of": null,
    "pad_id": 3,
    "pad_type_id": 0,
    "pad_token": "[PAD]"
  },
  "added_tokens": [
    {
      "id": 0,
      "content": "[UNK]",
      "single_word": false,
      "lstrip": false,
      "rstrip": false,
      "normalized": false,
      "special": true
    },
    {
      "id": 1,
      "content": "[CLS]",
      "single_word": false,
      "lstrip": false,
      "rstrip": false,
      "normalized": false,
      "special": true
    },
    {
      "id": 2,
      "content": "[SEP]",
      "single_word": false,
      "lstrip": false,
      "rstrip": false,
      "normalized": false,
      "special": true
    },
    {
      "id": 3,
      "content": "[PAD]",
      "single_word": false,
      "lstrip": false,
      "rstrip": false,
      "normalized": false,
      "special": true
    },
    {
      "id": 4,
      "content": "[MASK]",
      "single_word": false,
      "lstrip": false,
      "rstrip": false,
      "normalized": false,
      "special": true
    }
  ],
  "normalizer": null,
  "pre_tokenizer": {
    "type": "Whitespace"
  },
  "post_processor": null,
  "decoder": null,
  "model": {
    "type": "BPE",
    "dropout": null,
    "unk_token": "[UNK]",
    "continuing_subword_prefix": null,
    "end_of_word_suffix": null,
    "fuse_unk": false,
    "byte_fallback": false,
    "ignore_merges": false,
    "vocab": {
      "[UNK]": 0,
      "[CLS]": 1,
      "[SEP]": 2,
      "[PAD]": 3,
      "[MASK]": 4,
      "\u0001": 5,
      "\u0002": 6,
      "\u0003": 7,
      "\u0004": 8,
      "\u0005": 9,
      "\u0006": 10,
      "\u0007": 11,
      "\b": 12,
      "\u000e": 13,
      "\u000f": 14,
      "\u0010": 15,
      "\u0011": 16,
      "\u0012": 17,
      "\u0013": 18,
      "\u0015": 19,
      "\u0017": 20,
      "\u0018": 21,
      "\u0019": 22,
      "\u001a": 23,
      "\u001b": 24,
      "\u001d": 25,
      "\u001e": 26,
      "\u001f": 27,
      "!": 28,
      "\"": 29,
      "#": 30,
      "$": 31,
      "%": 32,
      "&": 33,
      "'": 34,
      "(": 35,
      ")": 36,
      "*": 37,
      "+": 38,
      ",": 39,
      "-": 40,
      ".": 41,
      "/": 42,
      "0": 43,
      "1": 44,
      "2": 45,
      "3": 46,
      "4": 47,
      "5": 48,
      "6": 49,
      "7": 50,
      "8": 51,
      "9": 52,
      ":": 53,
      ";": 54,
      "<": 55,
      "=": 56,
      ">": 57,
      "?": 58,
      "@": 59,
      "A": 60,
      "B": 61,
      "C": 62,
      "D": 63,
      "E": 64,
      "F": 65,
      "G": 66,
      "H": 67,
      "I": 68,
      "J": 69,
      "K": 70,
      "L": 71,
      "M": 72,
      "N": 73,
      "O": 74,
      "P": 75,
      "Q": 76,
      "R": 77,
      "S": 78,
      "T": 79,
      "U": 80,
      "V": 81,
      "W": 82,
      "X": 83,
      "Y": 84,
      "Z": 85,
      "[": 86,
      "\\": 87,
      "]": 88,
      "^": 89,
      "_": 90,
      "`": 91,
      "a": 92,
      "b": 93,
      "c": 94,
      "d": 95,
      "e": 96,
      "f": 97,
      "g": 98,
      "h": 99,
      "i": 100,
      "j": 101,
      "k": 102,
      "l": 103,
      "m": 104,
      "n": 105,
      "o": 106,
      "p": 107,
      "q": 108,
      "r": 109,
      "s": 110,
      "t": 111,
      "u": 112,
      "v": 113,
      "w": 114,
      "x": 115,
      "y": 116,
      "z": 117,
      "{": 118,
      "|": 119,
      "}": 120,
      "~": 121,
      "": 122,
      "": 123,
      "": 124,
      "": 125,
      "": 126,
      "": 127,
      "": 128,
      "": 129,
      "": 130,
      "": 131,
      "": 132,
      "": 133,
      "": 134,
      "": 135,
      "": 136,
      "": 137,
      "": 138,
      "": 139,
      "": 140,
      "": 141,
      "": 142,
      "": 143,
      "¡": 144,
      "¢": 145,
      "£": 146,
      "¤": 147,
      "¥": 148,
      "¦": 149,
      "§": 150,
      "¨": 151,
      "©": 152,
      "ª": 153,
      "«": 154,
      "¬": 155,
      "­": 156,
      "®": 157,
      "¯": 158,
      "°": 159,
      "±": 160,
      "²": 161,
      "³": 162,
      "´": 163,
      "µ": 164,
      "¶": 165,
      "·": 166,
      "¸": 167,
      "¹": 168,
      "º": 169,
      "»": 170,
      "¼": 171,
      "½": 172,
      "¾": 173,
      "¿": 174,
      "À": 175,
      "Á": 176,
      "Â": 177,
      "Ã": 178,
      "Ä": 179,
      "Å": 180,
      "Æ": 181,
      "Ç": 182,
      "È": 183,
      "É": 184,
      "Ê": 185,
      "Ë": 186,
      "Ì": 187,
      "Í": 188,
      "Î": 189,
      "Ï": 190,
      "Ð": 191,
      "Ñ": 192,
      "Ò": 193,
      "Ó": 194,
      "Ô": 195,
      "Õ": 196,
      "Ö": 197,
      "×": 198,
      "Ø": 199,
      "Ù": 200,
      "Ú": 201,
      "Û": 202,
      "Ü": 203,
      "Ý": 204,
      "Þ": 205,
      "ß": 206,
      "à": 207,
      "á": 208,
      "â": 209,
      "ã": 210,
      "ä": 211,
      "å": 212,
      "æ": 213,
      "ç": 214,
      "è": 215,
      "é": 216,
      "ê": 217,
      "ë": 218,
      "ì": 219,
      "í": 220,
      "î": 221,
      "ï": 222,
      "ð": 223,
      "ñ": 224,
      "ò": 225,
      "ó": 226,
      "ô": 227,
      "õ": 228,
      "ö": 229,
      "÷": 230,
      "ø": 231,
      "ù": 232,
      "ú": 233,
      "û": 234,
      "ü": 235,
      "ý": 236,
      "þ": 237,
      "ÿ": 238,
      "Ā": 239,
      "ā": 240,
      "Ă": 241,
      "ă": 242,
      "ą": 243,
      "Ć": 244,
      "ć": 245,
      "ĉ": 246,
      "ċ": 247,
      "Č": 248,
      "č": 249,
      "Ď": 250,
      "ď": 251,
      "Đ": 252,
      "đ": 253,
      "ē": 254,
      "ė": 255,
      "ę": 256,
      "Ě": 257,
      "ě": 258,
      "ĝ": 259,
      "ğ": 260,
      "ġ": 261,
      "Ģ": 262,
      "ģ": 263,
      "Ĥ": 264,
      "ĥ": 265,
      "Ħ": 266,
      "ħ": 267,
      "Ĩ": 268,
      "ĩ": 269,
      "Ī": 270,
      "ī": 271,
      "Ĭ": 272,
      "ĭ": 273,
      "Į": 274,
      "İ": 275,
      "ı": 276,
      "Ĳ": 277,
      "ĳ": 278,
      "Ĵ": 279,
      "ĵ": 280,
      "Ķ": 281,
      "ķ": 282,
      "ĸ": 283,
      "Ĺ": 284,
      "ĺ": 285,
      "Ļ": 286,
      "ļ": 287,
      "Ľ": 288,
      "ľ": 289,
      "Ŀ": 290,
      "Ł": 291,
      "ł": 292,
      "ń": 293,
      "ņ": 294,
      "ň": 295,
      "Ŋ": 296,
      "ŋ": 297,
      "Ō": 298,
      "ō": 299,
      "ő": 300,
      "Œ": 301,
      "œ": 302,
      "ŕ": 303,
      "Ř": 304,
      "ř": 305,
      "Ś": 306,
      "ś": 307,
      "Ŝ": 308,
      "ŝ": 309,
      "Ş": 310,
      "ş": 311,
      "Š": 312,
      "š": 313,
      "ţ": 314,
      "ť": 315,
      "ũ": 316,
      "Ū": 317,
      "ū": 318,
      "ŭ": 319,
      "Ů": 320,
      "ů": 321,
      "Ű": 322,
      "ű": 323,
      "Ų": 324,
      "ų": 325,
      "Ŵ": 326,
      "ŵ": 327,
      "Ŷ": 328,
      "ŷ": 329,
      "Ÿ": 330,
      "Ź": 331,
      "ź": 332,
      "Ż": 333,
      "ż": 334,
      "Ž": 335,
      "ž": 336,
      "ſ": 337,
      "Ɓ": 338,
      "Ƈ": 339,
      "Ə": 340,
      "ƒ": 341,
      "Ɲ": 342,
      "ƞ": 343,
      "Ɵ": 344,
      "ơ": 345,
      "Ƥ": 346,
      "ƥ": 347,
      "Ʀ": 348,
      "Ƨ": 349,
      "Ʃ": 350,
      "ƪ": 351,
      "Ƭ": 352,
      "ƭ": 353,
      "Ʈ": 354,
      "Ư": 355,
      "ư": 356,
      "Ʊ": 357,
      "Ʋ": 358,
      "Ƴ": 359,
      "ƴ": 360,
      "Ƶ": 361,
      "ƶ": 362,
      "Ʒ": 363,
      "Ƹ": 364,
      "ƹ": 365,
      "ƺ": 366,
      "ƻ": 367,
      "Ƽ": 368,
      "ƽ": 369,
      "ƾ": 370,
      "ƿ": 371,
      "ǁ": 372,
      "ǃ": 373,
      "Ǌ": 374,
      "ǋ": 375,
      "ǎ": 376,
      "ǐ": 377,
      "ǒ": 378,
      "ǔ": 379,
      "Ǘ": 380,
      "Ǜ": 381,
      "ǝ": 382,
      "ǣ": 383,
      "ǧ": 384,
      "ǩ": 385,
      "ǫ": 386,
      "Ǭ": 387,
      "ǭ": 388,
      "Ǯ": 389,
      "ǰ": 390,
      "Ǳ": 391,
      "ǲ": 392,
      "Ǵ": 393,
      "ǵ": 394,
      "Ƕ": 395,
      "Ƿ": 396,
      "Ǹ": 397,
      "ǹ": 398,
      "Ǻ": 399,
      "ǻ": 400,
      "Ǽ": 401,
      "ǽ": 402,
      "Ǿ": 403,
      "ǿ": 404,
      "ȓ": 405,
      "ș": 406,
      "ț": 407,
      "ȡ": 408,
      "Ȥ": 409,
      "ȥ": 410,
      "Ȩ": 411,
      "ȫ": 412,
      "Ȯ": 413,
      "Ȱ": 414,
      "ȱ": 415,
      "Ȳ": 416,
      "ȳ": 417,
      "ȴ": 418,
      "ȵ": 419,
      "ȶ": 420,
      "ȷ": 421,
      "ȸ": 422,
      "Ⱥ": 423,
      "Ȼ": 424,
      "ȼ": 425,
      "Ƚ": 426,
      "Ⱦ": 427,
      "ɉ": 428,
      "ɍ": 429,
      "ɐ": 430,
      "ɑ": 431,
      "ɒ": 432,
      "ɔ": 433,
      "ɕ": 434,
      "ɗ": 435,
      "ə": 436,
      "ɛ": 437,
      "ɜ": 438,
      "ɠ": 439,
      "ɡ": 440,
      "ɢ": 441,
      "ɣ": 442,
      "ɥ": 443,
      "ɨ": 444,
      "ɪ": 445,
      "ɫ": 446,
      "ɮ": 447,
      "ɯ": 448,
      "ɰ": 449,
      "ɱ": 450,
      "ɲ": 451,
      "ɳ": 452,
      "ɴ": 453,
      "ɵ": 454,
      "ɶ": 455,
      "ɷ": 456,
      "ɸ": 457,
      "ɹ": 458,
      "ɺ": 459,
      "ɼ": 460,
      "ɽ": 461,
      "ɾ": 462,
      "ɿ": 463,
      "ʀ": 464,
      "ʁ": 465,
      "ʂ": 466,
      "ʃ": 467,
      "ʅ": 468,
      "ʇ": 469,
      "ʈ": 470,
      "ʉ": 471,
      "ʊ": 472,
      "ʌ": 473,
      "ʏ": 474,
      "ʒ": 475,
      "ʓ": 476,
      "ʔ": 477,
      "ʕ": 478,
      "ʖ": 479,
      "ʙ": 480,
      "ʜ": 481,
      "ʝ": 482,
      "ʞ": 483,
      "ʟ": 484,
      "ʡ": 485,
      "ʢ": 486,
      "ʤ": 487,
      "ʥ": 488,
      "ʦ": 489,
      "ʧ": 490,
      "ʨ": 491,
      "ʫ": 492,
      "ʮ": 493,
      "ʯ": 494,
      "ʰ": 495,
      "ʱ": 496,
      "ʲ": 497,
      "ʳ": 498,
      "ʴ": 499,
      "ʵ": 500,
      "ʶ": 501,
      "ʷ": 502,
      "ʸ": 503,
      "ʹ": 504,
      "ʺ": 505,
      "ʻ": 506,
      "ʼ": 507,
      "ʽ": 508,
      "ʾ": 509,
      "ʿ": 510,
      "ˀ": 511,
      "˃": 512,
      "ˆ": 513,
      "ˈ": 514,
      "ˉ": 515,
      "ˌ": 516,
      "ː": 517,
      "ˑ": 518,
      "˖": 519,
      "˙": 520,
      "˚": 521,
      "˜": 522,
      "˟": 523,
      "ˡ": 524,
      "ˢ": 525,
      "˩": 526,
      "˪": 527,
      "˫": 528,
      "ˬ": 529,
      "˭": 530,
      "ˮ": 531,
      "˯": 532,
      "˰": 533,
      "˱": 534,
      "˲": 535,
      "˳": 536,
      "˴": 537,
      "˵": 538,
      "˶": 539,
      "˷": 540,
      "˸": 541,
      "˹": 542,
      "˺": 543,
      "˻": 544,
      "˼": 545,
      "˽": 546,
      "˾": 547,
      "˿": 548,
      "́": 549,
      "̄": 550,
      "̅": 551,
      "̆": 552,
      "̈": 553,
      "̊": 554,
      "̌": 555,
      "̍": 556,
      "̒": 557,
      "̖": 558,
      "̞": 559,
      "̣": 560,
      "̤": 561,
      "̥": 562,
      "̦": 563,
      "̧": 564,
      "̨": 565,
      "̩": 566,
      "̫": 567,
      "̬": 568,
      "̮": 569,
      "̯": 570,
      "̰": 571,
      "̱": 572,
      "̲": 573,
      "̳": 574,
      "̴": 575,
      "̵": 576,
      "̶": 577,
      "̸": 578,
      "̹": 579,
      "̻": 580,
      "̼": 581,
      "̽": 582,
      "̾": 583,
      "̿": 584,
      "͘": 585,
      "͚": 586,
      "͛": 587,
      "͜": 588,
      "͡": 589,
      "ͣ": 590,
      "ͤ": 591,
      "ͥ": 592,
      "ͨ": 593,
      "ͬ": 594,
      "ͯ": 595,
      "Ͱ": 596,
      "ͱ": 597,
      "Ͳ": 598,
      "ͳ": 599,
      "ʹ": 600,
      "͵": 601,
      "Ͷ": 602,
      "ͷ": 603,
      "͸": 604,
      "͹": 605,
      "ͺ": 606,
      "ͻ": 607,
      "ͼ": 608,
      "ͽ": 609,
      ";": 610,
      "Ϳ": 611,
      "΄": 612,
      "Ά": 613,
      "Ό": 614,
      "Ύ": 615,
      "Ώ": 616,
      "ΐ": 617,
      "Α": 618,
      "Β": 619,
      "Γ": 620,
      "Δ": 621,
      "Ε": 622,
      "Ζ": 623,
      "Η": 624,
      "Θ": 625,
      "Ι": 626,
      "Κ": 627,
      "Λ": 628,
      "Μ": 629,
      "Ν": 630,
      "Ο": 631,
      "Π": 632,
      "Ρ": 633,
      "΢": 634,
      "Σ": 635,
      "Τ": 636,
      "Υ": 637,
      "Φ": 638,
      "Χ": 639,
      "Ψ": 640,
      "Ω": 641,
      "Ϊ": 642,
      "ά": 643,
      "έ": 644,
      "ή": 645,
      "ί": 646,
      "ΰ": 647,
      "α": 648,
      "β": 649,
      "γ": 650,
      "δ": 651,
      "ε": 652,
      "ζ": 653,
      "η": 654,
      "θ": 655,
      "ι": 656,
      "κ": 657,
      "λ": 658,
      "μ": 659,
      "ν": 660,
      "ξ": 661,
      "ο": 662,
      "π": 663,
      "ρ": 664,
      "ς": 665,
      "σ": 666,
      "τ": 667,
      "υ": 668,
      "φ": 669,
      "χ": 670,
      "ψ": 671,
      "ω": 672,
      "ϊ": 673,
      "ό": 674,
      "ύ": 675,
      "ώ": 676,
      "ϕ": 677,
      "ϖ": 678,
      "ϡ": 679,
      "Ϣ": 680,
      "Ϧ": 681,
      "ϭ": 682,
      "Ϯ": 683,
      "ϰ": 684,
      "ϱ": 685,
      "ϲ": 686,
      "ϳ": 687,
      "ϴ": 688,
      "ϵ": 689,
      "϶": 690,
      "Ϸ": 691,
      "ϸ": 692,
      "Ϲ": 693,
      "Ϻ": 694,
      "ϻ": 695,
      "ϼ": 696,
      "Ͻ": 697,
      "Ͼ": 698,
      "Ͽ": 699,
      "Ё": 700,
      "Є": 701,
      "Ѕ": 702,
      "І": 703,
      "Ї": 704,
      "Ј": 705,
      "Ќ": 706,
      "Ў": 707,
      "А": 708,
      "Б": 709,
      "В": 710,
      "Г": 711,
      "Д": 712,
      "Е": 713,
      "Ж": 714,
      "З": 715,
      "И": 716,
      "Й": 717,
      "К": 718,
      "Л": 719,
      "М": 720,
      "Н": 721,
      "О": 722,
      "П": 723,
      "Р": 724,
      "С": 725,
      "Т": 726,
      "У": 727,
      "Ф": 728,
      "Х": 729,
      "Ц": 730,
      "Ч": 731,
      "Ш": 732,
      "Щ": 733,
      "Ъ": 734,
      "Ы": 735,
      "Ь": 736,
      "Э": 737,
      "Ю": 738,
      "Я": 739,
      "а": 740,
      "б": 741,
      "в": 742,
      "г": 743,
      "д": 744,
      "е": 745,
      "ж": 746,
      "з": 747,
      "и": 748,
      "й": 749,
      "к": 750,
      "л": 751,
      "м": 752,
      "н": 753,
      "о": 754,
      "п": 755,
      "р": 756,
      "с": 757,
      "т": 758,
      "у": 759,
      "ф": 760,
      "х": 761,
      "ц": 762,
      "ч": 763,
      "ш": 764,
      "щ": 765,
      "ъ": 766,
      "ы": 767,
      "ь": 768,
      "э": 769,
      "ю": 770,
      "я": 771,
      "ѐ": 772,
      "ё": 773,
      "ђ": 774,
      "ѓ": 775,
      "є": 776,
      "ѕ": 777,
      "і": 778,
      "ї": 779,
      "ј": 780,
      "ѝ": 781,
      "ў": 782,
      "ѡ": 783,
      "ѣ": 784,
      "ѧ": 785,
      "ѩ": 786,
      "Ѫ": 787,
      "ѭ": 788,
      "ѯ": 789,
      "Ѱ": 790,
      "ѱ": 791,
      "Ѳ": 792,
      "ѳ": 793,
      "Ѵ": 794,
      "ѵ": 795,
      "Ѷ": 796,
      "ѷ": 797,
      "Ѹ": 798,
      "ѹ": 799,
      "Ѻ": 800,
      "Ѽ": 801,
      "ѽ": 802,
      "Ѿ": 803,
      "ѿ": 804,
      "҆": 805,
      "҉": 806,
      "ғ": 807,
      "ҙ": 808,
      "Қ": 809,
      "қ": 810,
      "ҡ": 811,
      "ң": 812,
      "Ҧ": 813,
      "ҧ": 814,
      "ҩ": 815,
      "Ҫ": 816,
      "ҫ": 817,
      "ү": 818,
      "Ұ": 819,
      "ұ": 820,
      "Ҳ": 821,
      "ҳ": 822,
      "Ҵ": 823,
      "ҵ": 824,
      "Ҷ": 825,
      "ҷ": 826,
      "Ҹ": 827,
      "ҹ": 828,
      "Һ": 829,
      "һ": 830,
      "Ҽ": 831,
      "ҽ": 832,
      "Ҿ": 833,
      "ҿ": 834,
      "Ӏ": 835,
      "ӏ": 836,
      "Ә": 837,
      "ә": 838,
      "ӡ": 839,
      "Ӣ": 840,
      "ӣ": 841,
      "ӥ": 842,
      "Ӧ": 843,
      "Ө": 844,
      "ө": 845,
      "Ӫ": 846,
      "ӭ": 847,
      "Ӯ": 848,
      "ӯ": 849,
      "Ӱ": 850,
      "ӱ": 851,
      "Ӳ": 852,
      "ӳ": 853,
      "Ӵ": 854,
      "ӵ": 855,
      "Ӷ": 856,
      "Ӹ": 857,
      "ӹ": 858,
      "Ӻ": 859,
      "ӻ": 860,
      "Ӽ": 861,
      "ӽ": 862,
      "Ӿ": 863,
      "ӿ": 864,
      "ԃ": 865,
      "ԋ": 866,
      "Ԑ": 867,
      "ԑ": 868,
      "ԓ": 869,
      "ԡ": 870,
      "Ԣ": 871,
      "Ԥ": 872,
      "ԩ": 873,
      "Ԫ": 874,
      "ԭ": 875,
      "԰": 876,
      "Ա": 877,
      "Բ": 878,
      "Գ": 879,
      "Դ": 880,
      "Ե": 881,
      "Զ": 882,
      "Է": 883,
      "Ը": 884,
      "Թ": 885,
      "Ժ": 886,
      "Ի": 887,
      "Լ": 888,
      "Խ": 889,
      "Ծ": 890,
      "Կ": 891,
      "Հ": 892,
      "Պ": 893,
      "Ռ": 894,
      "Փ": 895,
      "Ք": 896,
      "Օ": 897,
      "ա": 898,
      "բ": 899,
      "գ": 900,
      "ե": 901,
      "զ": 902,
      "է": 903,
      "ը": 904,
      "թ": 905,
      "ի": 906,
      "լ": 907,
      "կ": 908,
      "հ": 909,
      "ձ": 910,
      "ղ": 911,
      "ճ": 912,
      "մ": 913,
      "յ": 914,
      "ն": 915,
      "շ": 916,
      "ո": 917,
      "չ": 918,
      "պ": 919,
      "ջ": 920,
      "ռ": 921,
      "ս": 922,
      "վ": 923,
      "տ": 924,
      "ր": 925,
      "ւ": 926,
      "ք": 927,
      "օ": 928,
      "ֆ": 929,
      "։": 930,
      "֡": 931,
      "֢": 932,
      "֤": 933,
      "֦": 934,
      "֧": 935,
      "֪": 936,
      "֫": 937,
      "֮": 938,
      "ְ": 939,
      "ֱ": 940,
      "ֲ": 941,
      "ֳ": 942,
      "ִ": 943,
      "ֵ": 944,
      "ֶ": 945,
      "ַ": 946,
      "ָ": 947,
      "ֹ": 948,
      "ֺ": 949,
      "ֻ": 950,
      "ּ": 951,
      "ֽ": 952,
      "־": 953,
      "ֿ": 954,
      "ׂ": 955,
      "א": 956,
      "ב": 957,
      "ג": 958,
      "ד": 959,
      "ה": 960,
      "ו": 961,
      "ז": 962,
      "ח": 963,
      "ט": 964,
      "י": 965,
      "ך": 966,
      "כ": 967,
      "ל": 968,
      "ם": 969,
      "מ": 970,
      "ן": 971,
      "נ": 972,
      "ס": 973,
      "ע": 974,
      "ף": 975,
      "פ": 976,
      "ץ": 977,
      "צ": 978,
      "ק": 979,
      "ר": 980,
      "ש": 981,
      "ת": 982,
      "׬": 983,
      "ׯ": 984,
      "װ": 985,
      "ױ": 986,
      "ײ": 987,
      "׳": 988,
      "״": 989,
      "׵": 990,
      "׷": 991,
      "׸": 992,
      "׹": 993,
      "׻": 994,
      "׼": 995,
      "׽": 996,
      "׾": 997,
      "׿": 998,
      "،": 999,
      "ؔ": 1000,
      "؛": 1001,
      "؟": 1002,
      "ء": 1003,
      "آ": 1004,
      "أ": 1005,
      "ؤ": 1006,
      "إ": 1007,
      "ئ": 1008,
      "ا": 1009,
      "ب": 1010,
      "ة": 1011,
      "ت": 1012,
      "ث": 1013,
      "ج": 1014,
      "ح": 1015,
      "خ": 1016,
      "د": 1017,
      "ذ": 1018,
      "ر": 1019,
      "ز": 1020,
      "س": 1021,
      "ش": 1022,
      "ص": 1023,
      "ض": 1024,
      "ط": 1025,
      "ظ": 1026,
      "ع": 1027,
      "غ": 1028,
      "ػ": 1029,
      "ؼ": 1030,
      "ؽ": 1031,
      "ؾ": 1032,
      "ؿ": 1033,
      "ـ": 1034,
      "ف": 1035,
      "ق": 1036,
      "ك": 1037,
      "ل": 1038,
      "م": 1039,
      "ن": 1040,
      "ه": 1041,
      "و": 1042,
      "ى": 1043,
      "ي": 1044,
      "ً": 1045,
      "ٌ": 1046,
      "َ": 1047,
      "ُ": 1048,
      "ِ": 1049,
      "ّ": 1050,
      "ْ": 1051,
      "١": 1052,
      "٣": 1053,
      "٥": 1054,
      "٨": 1055,
      "٩": 1056,
      "ٰ": 1057,
      "ٱ": 1058,
      "ٲ": 1059,
      "ٳ": 1060,
      "ٴ": 1061,
      "ٵ": 1062,
      "ٶ": 1063,
      "ٷ": 1064,
      "ٸ": 1065,
      "ٹ": 1066,
      "ٺ": 1067,
      "ٻ": 1068,
      "ټ": 1069,
      "ٽ": 1070,
      "پ": 1071,
      "ٿ": 1072,
      "ڀ": 1073,
      "ځ": 1074,
      "ڃ": 1075,
      "څ": 1076,
      "چ": 1077,
      "ڈ": 1078,
      "ڌ": 1079,
      "ڏ": 1080,
      "ڑ": 1081,
      "ژ": 1082,
      "ښ": 1083,
      "ڠ": 1084,
      "ک": 1085,
      "ڪ": 1086,
      "ڬ": 1087,
      "ڭ": 1088,
      "گ": 1089,
      "ڰ": 1090,
      "ڱ": 1091,
      "ڲ": 1092,
      "ڳ": 1093,
      "ڴ": 1094,
      "ڵ": 1095,
      "ڶ": 1096,
      "ڷ": 1097,
      "ڸ": 1098,
      "ڹ": 1099,
      "ں": 1100,
      "ڻ": 1101,
      "ڼ": 1102,
      "ڽ": 1103,
      "ھ": 1104,
      "ڿ": 1105,
      "ہ": 1106,
      "ۂ": 1107,
      "ۃ": 1108,
      "ۉ": 1109,
      "ی": 1110,
      "ێ": 1111,
      "ې": 1112,
      "ے": 1113,
      "۔": 1114,
      "ە": 1115,
      "ۖ": 1116,
      "ۚ": 1117,
      "ۛ": 1118,
      "ۡ": 1119,
      "۰": 1120,
      "۱": 1121,
      "۲": 1122,
      "۳": 1123,
      "۴": 1124,
      "۵": 1125,
      "۶": 1126,
      "۷": 1127,
      "۸": 1128,
      "۹": 1129,
      "ۺ": 1130,
      "ۻ": 1131,
      "ۼ": 1132,
      "۽": 1133,
      "۾": 1134,
      "ۿ": 1135,
      "ܐ": 1136,
      "ܘ": 1137,
      "ܝ": 1138,
      "ܡ": 1139,
      "ܢ": 1140,
      "ܪ": 1141,
      "ܱ": 1142,
      "ܲ": 1143,
      "ܴ": 1144,
      "ܵ": 1145,
      "ܷ": 1146,
      "ܸ": 1147,
      "ܹ": 1148,
      "ܺ": 1149,
      "ܻ": 1150,
      "ܼ": 1151,
      "ܽ": 1152,
      "ܾ": 1153,
      "ܿ": 1154,
      "ݱ": 1155,
      "ݲ": 1156,
      "ݳ": 1157,
      "ݴ": 1158,
      "ݵ": 1159,
      "ݶ": 1160,
      "ݷ": 1161,
      "ݸ": 1162,
      "ݹ": 1163,
      "ݺ": 1164,
      "ݼ": 1165,
      "ݿ": 1166,
      "ޱ": 1167,
      "޲": 1168,
      "޳": 1169,
      "޴": 1170,
      "޵": 1171,
      "޶": 1172,
      "޷": 1173,
      "޹": 1174,
      "޺": 1175,
      "޻": 1176,
      "޼": 1177,
      "޽": 1178,
      "޾": 1179,
      "޿": 1180,
      "߰": 1181,
      "߱": 1182,
      "߲": 1183,
      "߳": 1184,
      "ߴ": 1185,
      "ߵ": 1186,
      "߶": 1187,
      "߷": 1188,
      "߸": 1189,
      "߹": 1190,
      "ߺ": 1191,
      "߻": 1192,
      "߼": 1193,
      "߽": 1194,
      "߾": 1195,
      "߿": 1196,
      "ࡊ": 1197,
      "࣯": 1198,
      "ऀ": 1199,
      "ँ": 1200,
      "ं": 1201,
      "ः": 1202,
      "ऄ": 1203,
      "अ": 1204,
      "आ": 1205,
      "इ": 1206,
      "ई": 1207,
      "उ": 1208,
      "ऊ": 1209,
      "ऋ": 1210,
      "ऌ": 1211,
      "ऍ": 1212,
      "ऎ": 1213,
      "ए": 1214,
      "ऐ": 1215,
      "ऑ": 1216,
      "ऒ": 1217,
      "ओ": 1218,
      "औ": 1219,
      "क": 1220,
      "ख": 1221,
      "ग": 1222,
      "घ": 1223,
      "ङ": 1224,
      "च": 1225,
      "छ": 1226,
      "ज": 1227,
      "झ": 1228,
      "ञ": 1229,
      "ट": 1230,
      "ठ": 1231,
      "ड": 1232,
      "ढ": 1233,
      "ण": 1234,
      "त": 1235,
      "थ": 1236,
      "द": 1237,
      "ध": 1238,
      "न": 1239,
      "ऩ": 1240,
      "प": 1241,
      "फ": 1242,
      "ब": 1243,
      "भ": 1244,
      "म": 1245,
      "य": 1246,
      "र": 1247,
      "ऱ": 1248,
      "ल": 1249,
      "ळ": 1250,
      "ऴ": 1251,
      "व": 1252,
      "श": 1253,
      "ष": 1254,
      "स": 1255,
      "ह": 1256,
      "ऺ": 1257,
      "ऻ": 1258,
      "़": 1259,
      "ऽ": 1260,
      "ा": 1261,
      "ि": 1262,
      "ी": 1263,
      "ु": 1264,
      "ू": 1265,
      "ृ": 1266,
      "ॄ": 1267,
      "ॅ": 1268,
      "ॆ": 1269,
      "े": 1270,
      "ै": 1271,
      "ॉ": 1272,
      "ॊ": 1273,
      "ो": 1274,
      "ौ": 1275,
      "्": 1276,
      "ॏ": 1277,
      "ॐ": 1278,
      "॑": 1279,
      "॒": 1280,
      "॓": 1281,
      "॔": 1282,
      "ॕ": 1283,
      "क़": 1284,
      "ख़": 1285,
      "ग़": 1286,
      "ज़": 1287,
      "ड़": 1288,
      "ढ़": 1289,
      "फ़": 1290,
      "य़": 1291,
      "ॠ": 1292,
      "ॡ": 1293,
      "ॢ": 1294,
      "ॣ": 1295,
      "।": 1296,
      "॥": 1297,
      "०": 1298,
      "१": 1299,
      "२": 1300,
      "३": 1301,
      "४": 1302,
      "५": 1303,
      "६": 1304,
      "७": 1305,
      "८": 1306,
      "९": 1307,
      "॰": 1308,
      "ॱ": 1309,
      "ॲ": 1310,
      "ॳ": 1311,
      "ॴ": 1312,
      "ॻ": 1313,
      "ॼ": 1314,
      "ॽ": 1315,
      "ॾ": 1316,
      "ॿ": 1317,
      "ং": 1318,
      "অ": 1319,
      "আ": 1320,
      "ই": 1321,
      "ঈ": 1322,
      "উ": 1323,
      "এ": 1324,
      "ও": 1325,
      "ক": 1326,
      "খ": 1327,
      "গ": 1328,
      "ঙ": 1329,
      "চ": 1330,
      "ছ": 1331,
      "জ": 1332,
      "ট": 1333,
      "ঠ": 1334,
      "ড": 1335,
      "ণ": 1336,
      "ত": 1337,
      "থ": 1338,
      "দ": 1339,
      "ধ": 1340,
      "ন": 1341,
      "প": 1342,
      "ফ": 1343,
      "ব": 1344,
      "ভ": 1345,
      "ম": 1346,
      "য": 1347,
      "র": 1348,
      "ল": 1349,
      "শ": 1350,
      "ষ": 1351,
      "স": 1352,
      "হ": 1353,
      "়": 1354,
      "া": 1355,
      "ি": 1356,
      "ী": 1357,
      "ু": 1358,
      "ূ": 1359,
      "ৃ": 1360,
      "ে": 1361,
      "ৈ": 1362,
      "ো": 1363,
      "্": 1364,
      "ৎ": 1365,
      "ড়": 1366,
      "য়": 1367,
      "০": 1368,
      "১": 1369,
      "২": 1370,
      "৪": 1371,
      "৫": 1372,
      "৮": 1373,
      "৯": 1374,
      "ৰ": 1375,
      "ਂ": 1376,
      "ਅ": 1377,
      "ਆ": 1378,
      "ਇ": 1379,
      "ਈ": 1380,
      "ਉ": 1381,
      "ਐ": 1382,
      "ਓ": 1383,
      "ਕ": 1384,
      "ਖ": 1385,
      "ਗ": 1386,
      "ਘ": 1387,
      "ਚ": 1388,
      "ਜ": 1389,
      "ਟ": 1390,
      "ਠ": 1391,
      "ਡ": 1392,
      "ਣ": 1393,
      "ਤ": 1394,
      "ਦ": 1395,
      "ਧ": 1396,
      "ਨ": 1397,
      "ਪ": 1398,
      "ਬ": 1399,
      "ਭ": 1400,
      "ਮ": 1401,
      "ਯ": 1402,
      "ਰ": 1403,
      "ਲ": 1404,
      "ਵ": 1405,
      "ਸ਼": 1406,
      "ਸ": 1407,
      "ਹ": 1408,
      "਼": 1409,
      "ਾ": 1410,
      "ਿ": 1411,
      "ੀ": 1412,
      "ੁ": 1413,
      "ੂ": 1414,
      "ੇ": 1415,
      "ੈ": 1416,
      "ੋ": 1417,
      "੍": 1418,
      "ੜ": 1419,
      "੦": 1420,
      "੧": 1421,
      "੪": 1422,
      "੬": 1423,
      "੯": 1424,
      "ੰ": 1425,
      "ੱ": 1426,
      "ੲ": 1427,
      "ੴ": 1428,
      "ં": 1429,
      "અ": 1430,
      "આ": 1431,
      "ઇ": 1432,
      "ઈ": 1433,
      "ઉ": 1434,
      "એ": 1435,
      "ઐ": 1436,
      "ઓ": 1437,
      "ક": 1438,
      "ખ": 1439,
      "ગ": 1440,
      "ઘ": 1441,
      "ચ": 1442,
      "છ": 1443,
      "જ": 1444,
      "ઝ": 1445,
      "ટ": 1446,
      "ઠ": 1447,
      "ડ": 1448,
      "ઢ": 1449,
      "ણ": 1450,
      "ત": 1451,
      "થ": 1452,
      "દ": 1453,
      "ધ": 1454,
      "ન": 1455,
      "પ": 1456,
      "ફ": 1457,
      "બ": 1458,
      "ભ": 1459,
      "મ": 1460,
      "ય": 1461,
      "ર": 1462,
      "લ": 1463,
      "ળ": 1464,
      "વ": 1465,
      "શ": 1466,
      "ષ": 1467,
      "સ": 1468,
      "હ": 1469,
      "ા": 1470,
      "િ": 1471,
      "ી": 1472,
      "ુ": 1473,
      "ૂ": 1474,
      "ે": 1475,
      "ૈ": 1476,
      "ૉ": 1477,
      "ો": 1478,
      "ૌ": 1479,
      "્": 1480,
      "ૐ": 1481,
      "૨": 1482,
      "૪": 1483,
      "૬": 1484,
      "૭": 1485,
      "૮": 1486,
      "ଆ": 1487,
      "ଓ": 1488,
      "କ": 1489,
      "ଜ": 1490,
      "ଟ": 1491,
      "ଡ": 1492,
      "ନ": 1493,
      "ପ": 1494,
      "ବ": 1495,
      "ଭ": 1496,
      "ଲ": 1497,
      "଼": 1498,
      "ା": 1499,
      "ି": 1500,
      "ୀ": 1501,
      "୍": 1502,
      "ୟ": 1503,
      "ஃ": 1504,
      "அ": 1505,
      "ஆ": 1506,
      "இ": 1507,
      "ஈ": 1508,
      "உ": 1509,
      "ஊ": 1510,
      "எ": 1511,
      "ஏ": 1512,
      "ஐ": 1513,
      "ஒ": 1514,
      "ஓ": 1515,
      "க": 1516,
      "ங": 1517,
      "ச": 1518,
      "ஜ": 1519,
      "ஞ": 1520,
      "ட": 1521,
      "ண": 1522,
      "த": 1523,
      "ந": 1524,
      "ன": 1525,
      "ப": 1526,
      "ம": 1527,
      "ய": 1528,
      "ர": 1529,
      "ற": 1530,
      "ல": 1531,
      "ள": 1532,
      "ழ": 1533,
      "வ": 1534,
      "ஷ": 1535,
      "ஸ": 1536,
      "ஹ": 1537,
      "ா": 1538,
      "ி": 1539,
      "ீ": 1540,
      "ு": 1541,
      "ூ": 1542,
      "ெ": 1543,
      "ே": 1544,
      "ை": 1545,
      "ொ": 1546,
      "ோ": 1547,
      "ௌ": 1548,
      "்": 1549,
      "௭": 1550,
      "ం": 1551,
      "అ": 1552,
      "ఆ": 1553,
      "ఈ": 1554,
      "ఉ": 1555,
      "ఎ": 1556,
      "ఓ": 1557,
      "క": 1558,
      "ఖ": 1559,
      "గ": 1560,
      "చ": 1561,
      "జ": 1562,
      "ట": 1563,
      "డ": 1564,
      "ణ": 1565,
      "త": 1566,
      "ద": 1567,
      "ధ": 1568,
      "న": 1569,
      "ప": 1570,
      "ఫ": 1571,
      "బ": 1572,
      "భ": 1573,
      "మ": 1574,
      "య": 1575,
      "ర": 1576,
      "ల": 1577,
      "ళ": 1578,
      "వ": 1579,
      "శ": 1580,
      "ష": 1581,
      "స": 1582,
      "హ": 1583,
      "ా": 1584,
      "ి": 1585,
      "ీ": 1586,
      "ు": 1587,
      "ూ": 1588,
      "ృ": 1589,
      "ె": 1590,
      "ే": 1591,
      "ై": 1592,
      "ొ": 1593,
      "ో": 1594,
      "్": 1595,
      "౦": 1596,
      "౶": 1597,
      "ಂ": 1598,
      "ಅ": 1599,
      "ಆ": 1600,
      "ಇ": 1601,
      "ಈ": 1602,
      "ಉ": 1603,
      "ಊ": 1604,
      "ಋ": 1605,
      "ಌ": 1606,
      "ಎ": 1607,
      "ಏ": 1608,
      "ಒ": 1609,
      "ಓ": 1610,
      "ಔ": 1611,
      "ಕ": 1612,
      "ಖ": 1613,
      "ಗ": 1614,
      "ಘ": 1615,
      "ಙ": 1616,
      "ಚ": 1617,
      "ಛ": 1618,
      "ಜ": 1619,
      "ಝ": 1620,
      "ಞ": 1621,
      "ಟ": 1622,
      "ಠ": 1623,
      "ಡ": 1624,
      "ಢ": 1625,
      "ಣ": 1626,
      "ತ": 1627,
      "ಥ": 1628,
      "ದ": 1629,
      "ಧ": 1630,
      "ನ": 1631,
      "ಪ": 1632,
      "ಫ": 1633,
      "ಬ": 1634,
      "ಭ": 1635,
      "ಮ": 1636,
      "ಯ": 1637,
      "ರ": 1638,
      "ಲ": 1639,
      "ಳ": 1640,
      "ವ": 1641,
      "ಶ": 1642,
      "ಷ": 1643,
      "ಸ": 1644,
      "ಹ": 1645,
      "ಾ": 1646,
      "ಿ": 1647,
      "ೀ": 1648,
      "ು": 1649,
      "ೂ": 1650,
      "ೃ": 1651,
      "ೆ": 1652,
      "ೇ": 1653,
      "ೈ": 1654,
      "ೊ": 1655,
      "ೋ": 1656,
      "ೌ": 1657,
      "್": 1658,
      "ೕ": 1659,
      "ೖ": 1660,
      "೧": 1661,
      "೨": 1662,
      "ം": 1663,
      "അ": 1664,
      "ആ": 1665,
      "ഇ": 1666,
      "ഉ": 1667,
      "ഐ": 1668,
      "ഔ": 1669,
      "ക": 1670,
      "ഖ": 1671,
      "ഗ": 1672,
      "ഘ": 1673,
      "ങ": 1674,
      "ച": 1675,
      "ജ": 1676,
      "ഞ": 1677,
      "ട": 1678,
      "ഡ": 1679,
      "ണ": 1680,
      "ത": 1681,
      "ദ": 1682,
      "ന": 1683,
      "പ": 1684,
      "ഫ": 1685,
      "ബ": 1686,
      "മ": 1687,
      "യ": 1688,
      "ര": 1689,
      "റ": 1690,
      "ല": 1691,
      "ള": 1692,
      "ഴ": 1693,
      "വ": 1694,
      "ശ": 1695,
      "ഷ": 1696,
      "സ": 1697,
      "ഹ": 1698,
      "ാ": 1699,
      "ി": 1700,
      "ീ": 1701,
      "ു": 1702,
      "ൂ": 1703,
      "െ": 1704,
      "േ": 1705,
      "ൈ": 1706,
      "ൊ": 1707,
      "ോ": 1708,
      "്": 1709,
      "ൗ": 1710,
      "൦": 1711,
      "ൻ": 1712,
      "ർ": 1713,
      "ൽ": 1714,
      "ං": 1715,
      "ක": 1716,
      "ග": 1717,
      "ච": 1718,
      "ජ": 1719,
      "ඩ": 1720,
      "ණ": 1721,
      "ත": 1722,
      "ද": 1723,
      "ධ": 1724,
      "න": 1725,
      "ප": 1726,
      "බ": 1727,
      "ම": 1728,
      "ය": 1729,
      "ර": 1730,
      "ල": 1731,
      "ව": 1732,
      "ශ": 1733,
      "ෂ": 1734,
      "ස": 1735,
      "හ": 1736,
      "ෆ": 1737,
      "්": 1738,
      "ා": 1739,
      "ැ": 1740,
      "ි": 1741,
      "ී": 1742,
      "ු": 1743,
      "ේ": 1744,
      "ก": 1745,
      "ข": 1746,
      "ค": 1747,
      "ง": 1748,
      "จ": 1749,
      "ช": 1750,
      "ซ": 1751,
      "ณ": 1752,
      "ด": 1753,
      "ต": 1754,
      "ถ": 1755,
      "ท": 1756,
      "ธ": 1757,
      "น": 1758,
      "บ": 1759,
      "ป": 1760,
      "ผ": 1761,
      "พ": 1762,
      "ภ": 1763,
      "ม": 1764,
      "ย": 1765,
      "ร": 1766,
      "ล": 1767,
      "ว": 1768,
      "ศ": 1769,
      "ษ": 1770,
      "ส": 1771,
      "ห": 1772,
      "อ": 1773,
      "ะ": 1774,
      "ั": 1775,
      "า": 1776,
      "ำ": 1777,
      "ิ": 1778,
      "ี": 1779,
      "ึ": 1780,
      "ื": 1781,
      "ุ": 1782,
      "ู": 1783,
      "฿": 1784,
      "เ": 1785,
      "แ": 1786,
      "โ": 1787,
      "ใ": 1788,
      "ไ": 1789,
      "ๆ": 1790,
      "็": 1791,
      "่": 1792,
      "้": 1793,
      "๋": 1794,
      "์": 1795,
      "๏": 1796,
      "ພ": 1797,
      "ລ": 1798,
      "ວ": 1799,
      "ສ": 1800,
      "າ": 1801,
      "་": 1802,
      "།": 1803,
      "༒": 1804,
      "༸": 1805,
      "ཁ": 1806,
      "ག": 1807,
      "ང": 1808,
      "ཏ": 1809,
      "ད": 1810,
      "ན": 1811,
      "བ": 1812,
      "མ": 1813,
      "ཙ": 1814,
      "ཚ": 1815,
      "ཛ": 1816,
      "འ": 1817,
      "ར": 1818,
      "ལ": 1819,
      "ས": 1820,
      "ཧ": 1821,
      "ཨ": 1822,
      "ི": 1823,
      "ུ": 1824,
      "ེ": 1825,
      "ོ": 1826,
      "ྐ": 1827,
      "ྒ": 1828,
      "ྗ": 1829,
      "ྟ": 1830,
      "ྡ": 1831,
      "ྭ": 1832,
      "ྱ": 1833,
      "ླ": 1834,
      "࿭": 1835,
      "က": 1836,
      "ခ": 1837,
      "စ": 1838,
      "န": 1839,
      "ဗ": 1840,
      "မ": 1841,
      "ရ": 1842,
      "သ": 1843,
      "အ": 1844,
      "ဦ": 1845,
      "ာ": 1846,
      "့": 1847,
      "း": 1848,
      "္": 1849,
      "်": 1850,
      "ြ": 1851,
      "ა": 1852,
      "ბ": 1853,
      "ე": 1854,
      "ვ": 1855,
      "თ": 1856,
      "ი": 1857,
      "კ": 1858,
      "ლ": 1859,
      "მ": 1860,
      "ნ": 1861,
      "ო": 1862,
      "პ": 1863,
      "რ": 1864,
      "ს": 1865,
      "ტ": 1866,
      "უ": 1867,
      "ქ": 1868,
      "ღ": 1869,
      "შ": 1870,
      "ც": 1871,
      "ხ": 1872,
      "჻": 1873,
      "ለ": 1874,
      "ላ": 1875,
      "ማ": 1876,
      "ሥ": 1877,
      "ረ": 1878,
      "ር": 1879,
      "ሴ": 1880,
      "ቀ": 1881,
      "ኃ": 1882,
      "ኛ": 1883,
      "አ": 1884,
      "ኽ": 1885,
      "ዊ": 1886,
      "ይ": 1887,
      "ዳ": 1888,
      "ዺ": 1889,
      "Ꭶ": 1890,
      "Ꭹ": 1891,
      "Ꭺ": 1892,
      "Ꭿ": 1893,
      "Ꮃ": 1894,
      "Ꮒ": 1895,
      "Ꮓ": 1896,
      "Ꮝ": 1897,
      "Ꮢ": 1898,
      "Ꮪ": 1899,
      "Ꮳ": 1900,
      "Ꮼ": 1901,
      "ᐯ": 1902,
      "ᑀ": 1903,
      "ᔕ": 1904,
      "ᕼ": 1905,
      "ᖇ": 1906,
      "ᖴ": 1907,
      "ᗡ": 1908,
      "ᗩ": 1909,
      "ᗪ": 1910,
      "ᚼ": 1911,
      "ᛒ": 1912,
      "ᛕ": 1913,
      "ᛢ": 1914,
      "ក": 1915,
      "ខ": 1916,
      "ជ": 1917,
      "ទ": 1918,
      "ធ": 1919,
      "ព": 1920,
      "ភ": 1921,
      "ម": 1922,
      "រ": 1923,
      "ស": 1924,
      "ហ": 1925,
      "ា": 1926,
      "ុ": 1927,
      "ែ": 1928,
      "្": 1929,
      "᠘": 1930,
      "ᡣ": 1931,
      "ᡷ": 1932,
      "ᢕ": 1933,
      "ᥙ": 1934,
      "ᱦ": 1935,
      "Ხ": 1936,
      "ᴀ": 1937,
      "ᴄ": 1938,
      "ᴅ": 1939,
      "ᴇ": 1940,
      "ᴍ": 1941,
      "ᴏ": 1942,
      "ᴘ": 1943,
      "ᴛ": 1944,
      "ᴜ": 1945,
      "ᴠ": 1946,
      "ᴡ": 1947,
      "ᴢ": 1948,
      "ᴫ": 1949,
      "ᴹ": 1950,
      "ᵒ": 1951,
      "ᵥ": 1952,
      "᷃": 1953,
      "ᷢ": 1954,
      "ḍ": 1955,
      "ḣ": 1956,
      "Ḥ": 1957,
      "ḥ": 1958,
      "ḵ": 1959,
      "ḷ": 1960,
      "Ḻ": 1961,
      "ḻ": 1962,
      "ṁ": 1963,
      "ṃ": 1964,
      "Ṅ": 1965,
      "ṅ": 1966,
      "Ṇ": 1967,
      "ṇ": 1968,
      "ṉ": 1969,
      "ṛ": 1970,
      "ṟ": 1971,
      "ṡ": 1972,
      "ṣ": 1973,
      "ṩ": 1974,
      "ṫ": 1975,
      "ṭ": 1976,
      "ṯ": 1977,
      "ẏ": 1978,
      "ẖ": 1979,
      "ạ": 1980,
      "Ả": 1981,
      "ả": 1982,
      "Ấ": 1983,
      "ấ": 1984,
      "ầ": 1985,
      "Ẩ": 1986,
      "ẩ": 1987,
      "ẫ": 1988,
      "ậ": 1989,
      "ắ": 1990,
      "ằ": 1991,
      "ẳ": 1992,
      "ẵ": 1993,
      "ặ": 1994,
      "ẹ": 1995,
      "ẻ": 1996,
      "ẽ": 1997,
      "ế": 1998,
      "ề": 1999,
      "ể": 2000,
      "ễ": 2001,
      "ệ": 2002,
      "ỉ": 2003,
      "Ị": 2004,
      "ị": 2005,
      "ọ": 2006,
      "ỏ": 2007,
      "ố": 2008,
      "ồ": 2009,
      "Ổ": 2010,
      "ổ": 2011,
      "ỗ": 2012,
      "ộ": 2013,
      "ớ": 2014,
      "ờ": 2015,
      "Ở": 2016,
      "Ợ": 2017,
      "ợ": 2018,
      "ụ": 2019,
      "Ủ": 2020,
      "ủ": 2021,
      "ứ": 2022,
      "ừ": 2023,
      "ử": 2024,
      "ữ": 2025,
      "ự": 2026,
      "ỳ": 2027,
      "ỷ": 2028,
      "ỹ": 2029,
      "ἀ": 2030,
      "ἄ": 2031,
      "Ἀ": 2032,
      "Ἁ": 2033,
      "Ἄ": 2034,
      "Ἅ": 2035,
      "ἐ": 2036,
      "ἑ": 2037,
      "ἔ": 2038,
      "Ἐ": 2039,
      "ἡ": 2040,
      "ἣ": 2041,
      "ἥ": 2042,
      "ἰ": 2043,
      "ἱ": 2044,
      "ἴ": 2045,
      "Ἰ": 2046,
      "ὀ": 2047,
      "ὁ": 2048,
      "ὃ": 2049,
      "ὄ": 2050,
      "Ὁ": 2051,
      "ὐ": 2052,
      "ὕ": 2053,
      "ὗ": 2054,
      "Ὑ": 2055,
      "Ὠ": 2056,
      "ὰ": 2057,
      "ὲ": 2058,
      "ὴ": 2059,
      "ὶ": 2060,
      "ὸ": 2061,
      "ὺ": 2062,
      "ᾫ": 2063,
      "ᾶ": 2064,
      "᾽": 2065,
      "ῆ": 2066,
      "ῖ": 2067,
      "ῥ": 2068,
      "ῦ": 2069,
      "Ὺ": 2070,
      "ῳ": 2071,
      "ῴ": 2072,
      "ῶ": 2073,
      "​": 2074,
      "‌": 2075,
      "‍": 2076,
      "‎": 2077,
      "‏": 2078,
      "‐": 2079,
      "‑": 2080,
      "–": 2081,
      "—": 2082,
      "―": 2083,
      "‖": 2084,
      "‘": 2085,
      "’": 2086,
      "‚": 2087,
      "‛": 2088,
      "“": 2089,
      "”": 2090,
      "„": 2091,
      "‟": 2092,
      "†": 2093,
      "‡": 2094,
      "•": 2095,
      "…": 2096,
      "‧": 2097,
      "‪": 2098,
      "‫": 2099,
      "‬": 2100,
      "‭": 2101,
      "‰": 2102,
      "′": 2103,
      "″": 2104,
      "‴": 2105,
      "‹": 2106,
      "›": 2107,
      "※": 2108,
      "‼": 2109,
      "‽": 2110,
      "‿": 2111,
      "⁃": 2112,
      "⁄": 2113,
      "⁚": 2114,
      "⁠": 2115,
      "⁡": 2116,
      "⁣": 2117,
      "⁦": 2118,
      "⁩": 2119,
      "⁮": 2120,
      "⁯": 2121,
      "⁰": 2122,
      "⁴": 2123,
      "⁵": 2124,
      "⁷": 2125,
      "⁸": 2126,
      "⁹": 2127,
      "⁻": 2128,
      "ⁿ": 2129,
      "₀": 2130,
      "₁": 2131,
      "₂": 2132,
      "₃": 2133,
      "₄": 2134,
      "₆": 2135,
      "₈": 2136,
      "ₐ": 2137,
      "ₒ": 2138,
      "₣": 2139,
      "₨": 2140,
      "₩": 2141,
      "₪": 2142,
      "€": 2143,
      "₭": 2144,
      "₰": 2145,
      "₱": 2146,
      "₹": 2147,
      "₽": 2148,
      "⃓": 2149,
      "⃕": 2150,
      "⃞": 2151,
      "⃣": 2152,
      "℃": 2153,
      "℅": 2154,
      "ℏ": 2155,
      "ℓ": 2156,
      "№": 2157,
      "ℚ": 2158,
      "ℜ": 2159,
      "ℝ": 2160,
      "™": 2161,
      "ℤ": 2162,
      "ℹ": 2163,
      "⅓": 2164,
      "⅔": 2165,
      "⅘": 2166,
      "⅚": 2167,
      "⅛": 2168,
      "⅝": 2169,
      "⅞": 2170,
      "Ⅷ": 2171,
      "ↄ": 2172,
      "←": 2173,
      "↑": 2174,
      "→": 2175,
      "↓": 2176,
      "↔": 2177,
      "↕": 2178,
      "↗": 2179,
      "↘": 2180,
      "↩": 2181,
      "↪": 2182,
      "⇆": 2183,
      "⇒": 2184,
      "⇧": 2185,
      "⇨": 2186,
      "∀": 2187,
      "∃": 2188,
      "∅": 2189,
      "∆": 2190,
      "∑": 2191,
      "−": 2192,
      "∗": 2193,
      "∙": 2194,
      "√": 2195,
      "∞": 2196,
      "∟": 2197,
      "∠": 2198,
      "∩": 2199,
      "∪": 2200,
      "∫": 2201,
      "∴": 2202,
      "≈": 2203,
      "≠": 2204,
      "≡": 2205,
      "≤": 2206,
      "≥": 2207,
      "≻": 2208,
      "⊙": 2209,
      "⊥": 2210,
      "⋀": 2211,
      "⋁": 2212,
      "⋅": 2213,
      "⋆": 2214,
      "⌘": 2215,
      "⌚": 2216,
      "⌛": 2217,
      "〉": 2218,
      "⍐": 2219,
      "⍽": 2220,
      "⏩": 2221,
      "⏪": 2222,
      "⏬": 2223,
      "⏭": 2224,
      "⏮": 2225,
      "⏰": 2226,
      "⏱": 2227,
      "⏺": 2228,
      "␀": 2229,
      "④": 2230,
      "Ⓒ": 2231,
      "Ⓜ": 2232,
      "Ⓡ": 2233,
      "ⓐ": 2234,
      "ⓒ": 2235,
      "ⓓ": 2236,
      "ⓔ": 2237,
      "ⓜ": 2238,
      "ⓝ": 2239,
      "ⓞ": 2240,
      "─": 2241,
      "━": 2242,
      "│": 2243,
      "┃": 2244,
      "┈": 2245,
      "┏": 2246,
      "┓": 2247,
      "└": 2248,
      "┗": 2249,
      "┘": 2250,
      "┛": 2251,
      "├": 2252,
      "┣": 2253,
      "┫": 2254,
      "┳": 2255,
      "┻": 2256,
      "┼": 2257,
      "║": 2258,
      "╚": 2259,
      "╭": 2260,
      "╮": 2261,
      "╯": 2262,
      "╰": 2263,
      "╱": 2264,
      "▃": 2265,
      "▉": 2266,
      "▒": 2267,
      "■": 2268,
      "□": 2269,
      "▪": 2270,
      "▫": 2271,
      "▬": 2272,
      "▲": 2273,
      "△": 2274,
      "▶": 2275,
      "▸": 2276,
      "►": 2277,
      "▼": 2278,
      "▽": 2279,
      "◀": 2280,
      "◄": 2281,
      "◆": 2282,
      "◇": 2283,
      "◉": 2284,
      "◊": 2285,
      "○": 2286,
      "◎": 2287,
      "●": 2288,
      "◐": 2289,
      "◑": 2290,
      "◙": 2291,
      "◦": 2292,
      "◻": 2293,
      "◼": 2294,
      "◽": 2295,
      "◾": 2296,
      "☀": 2297,
      "☁": 2298,
      "☃": 2299,
      "☄": 2300,
      "★": 2301,
      "☆": 2302,
      "☉": 2303,
      "☎": 2304,
      "☑": 2305,
      "☔": 2306,
      "☕": 2307,
      "☘": 2308,
      "☛": 2309,
      "☝": 2310,
      "☞": 2311,
      "☠": 2312,
      "☢": 2313,
      "☪": 2314,
      "☮": 2315,
      "☯": 2316,
      "☰": 2317,
      "☸": 2318,
      "☹": 2319,
      "☺": 2320,
      "☻": 2321,
      "☼": 2322,
      "♀": 2323,
      "♂": 2324,
      "♃": 2325,
      "♆": 2326,
      "♈": 2327,
      "♏": 2328,
      "♒": 2329,
      "♠": 2330,
      "♡": 2331,
      "♢": 2332,
      "♣": 2333,
      "♥": 2334,
      "♦": 2335,
      "♧": 2336,
      "♪": 2337,
      "♫": 2338,
      "♬": 2339,
      "♻": 2340,
      "♾": 2341,
      "⚓": 2342,
      "⚔": 2343,
      "⚕": 2344,
      "⚖": 2345,
      "⚘": 2346,
      "⚙": 2347,
      "⚛": 2348,
      "⚜": 2349,
      "⚠": 2350,
      "⚡": 2351,
      "⚪": 2352,
      "⚫": 2353,
      "⚽": 2354,
      "⚾": 2355,
      "⛄": 2356,
      "⛅": 2357,
      "⛏": 2358,
      "⛑": 2359,
      "⛪": 2360,
      "⛰": 2361,
      "⛱": 2362,
      "⛳": 2363,
      "⛵": 2364,
      "⛷": 2365,
      "⛺": 2366,
      "⛽": 2367,
      "✅": 2368,
      "✈": 2369,
      "✉": 2370,
      "✊": 2371,
      "✋": 2372,
      "✌": 2373,
      "✍": 2374,
      "✏": 2375,
      "✒": 2376,
      "✓": 2377,
      "✔": 2378,
      "✕": 2379,
      "✖": 2380,
      "✘": 2381,
      "✚": 2382,
      "✛": 2383,
      "✝": 2384,
      "✞": 2385,
      "✡": 2386,
      "✦": 2387,
      "✨": 2388,
      "✩": 2389,
      "✪": 2390,
      "✳": 2391,
      "✴": 2392,
      "✶": 2393,
      "✽": 2394,
      "❁": 2395,
      "❄": 2396,
      "❇": 2397,
      "❉": 2398,
      "❊": 2399,
      "❌": 2400,
      "❏": 2401,
      "❓": 2402,
      "❔": 2403,
      "❗": 2404,
      "❚": 2405,
      "❛": 2406,
      "❜": 2407,
      "❝": 2408,
      "❞": 2409,
      "❣": 2410,
      "❤": 2411,
      "❥": 2412,
      "❦": 2413,
      "➕": 2414,
      "➖": 2415,
      "➜": 2416,
      "➝": 2417,
      "➞": 2418,
      "➠": 2419,
      "➡": 2420,
      "➤": 2421,
      "➥": 2422,
      "➲": 2423,
      "⟶": 2424,
      "⠀": 2425,
      "⡤": 2426,
      "⡪": 2427,
      "⡷": 2428,
      "⡿": 2429,
      "⤵": 2430,
      "⦁": 2431,
      "⬅": 2432,
      "⬆": 2433,
      "⬇": 2434,
      "⭐": 2435,
      "⭕": 2436,
      "ⱦ": 2437,
      "ⱨ": 2438,
      "Ȿ": 2439,
      "ⲏ": 2440,
      "ⲓ": 2441,
      "ⲙ": 2442,
      "Ⲩ": 2443,
      "Ⲭ": 2444,
      "ⲻ": 2445,
      "ⵥ": 2446,
      "ⷨ": 2447,
      "ⷿ": 2448,
      "⸣": 2449,
      "⸥": 2450,
      "⸴": 2451,
      "⻨": 2452,
      "⻶": 2453,
      "⼰": 2454,
      "⼸": 2455,
      "⿪": 2456,
      "⿴": 2457,
      "、": 2458,
      "。": 2459,
      "々": 2460,
      "《": 2461,
      "》": 2462,
      "「": 2463,
      "」": 2464,
      "『": 2465,
      "』": 2466,
      "【": 2467,
      "】": 2468,
      "〜": 2469,
      "〰": 2470,
      "〽": 2471,
      "ぁ": 2472,
      "あ": 2473,
      "い": 2474,
      "う": 2475,
      "え": 2476,
      "お": 2477,
      "か": 2478,
      "が": 2479,
      "き": 2480,
      "ぎ": 2481,
      "く": 2482,
      "ぐ": 2483,
      "け": 2484,
      "げ": 2485,
      "こ": 2486,
      "ご": 2487,
      "さ": 2488,
      "ざ": 2489,
      "し": 2490,
      "じ": 2491,
      "す": 2492,
      "ず": 2493,
      "せ": 2494,
      "ぜ": 2495,
      "そ": 2496,
      "ぞ": 2497,
      "た": 2498,
      "だ": 2499,
      "ち": 2500,
      "っ": 2501,
      "つ": 2502,
      "づ": 2503,
      "て": 2504,
      "で": 2505,
      "と": 2506,
      "ど": 2507,
      "な": 2508,
      "に": 2509,
      "ね": 2510,
      "の": 2511,
      "は": 2512,
      "ば": 2513,
      "ぱ": 2514,
      "ひ": 2515,
      "び": 2516,
      "ふ": 2517,
      "ぶ": 2518,
      "ぷ": 2519,
      "へ": 2520,
      "べ": 2521,
      "ぺ": 2522,
      "ほ": 2523,
      "ぼ": 2524,
      "ま": 2525,
      "み": 2526,
      "む": 2527,
      "め": 2528,
      "も": 2529,
      "ゃ": 2530,
      "や": 2531,
      "ゅ": 2532,
      "ゆ": 2533,
      "ょ": 2534,
      "よ": 2535,
      "ら": 2536,
      "り": 2537,
      "る": 2538,
      "れ": 2539,
      "ろ": 2540,
      "わ": 2541,
      "を": 2542,
      "ん": 2543,
      "ア": 2544,
      "ィ": 2545,
      "イ": 2546,
      "ウ": 2547,
      "ェ": 2548,
      "エ": 2549,
      "ォ": 2550,
      "オ": 2551,
      "カ": 2552,
      "ガ": 2553,
      "キ": 2554,
      "ク": 2555,
      "グ": 2556,
      "ケ": 2557,
      "ゲ": 2558,
      "コ": 2559,
      "ゴ": 2560,
      "サ": 2561,
      "ザ": 2562,
      "シ": 2563,
      "ジ": 2564,
      "ス": 2565,
      "ズ": 2566,
      "セ": 2567,
      "ゼ": 2568,
      "ソ": 2569,
      "タ": 2570,
      "ダ": 2571,
      "チ": 2572,
      "ッ": 2573,
      "ツ": 2574,
      "テ": 2575,
      "デ": 2576,
      "ト": 2577,
      "ド": 2578,
      "ナ": 2579,
      "ニ": 2580,
      "ネ": 2581,
      "ノ": 2582,
      "ハ": 2583,
      "バ": 2584,
      "パ": 2585,
      "ヒ": 2586,
      "ビ": 2587,
      "ピ": 2588,
      "フ": 2589,
      "ブ": 2590,
      "プ": 2591,
      "ヘ": 2592,
      "ベ": 2593,
      "ペ": 2594,
      "ホ": 2595,
      "ボ": 2596,
      "ポ": 2597,
      "マ": 2598,
      "ミ": 2599,
      "ム": 2600,
      "メ": 2601,
      "モ": 2602,
      "ャ": 2603,
      "ヤ": 2604,
      "ュ": 2605,
      "ユ": 2606,
      "ョ": 2607,
      "ヨ": 2608,
      "ラ": 2609,
      "リ": 2610,
      "ル": 2611,
      "レ": 2612,
      "ロ": 2613,
      "ワ": 2614,
      "ン": 2615,
      "ヴ": 2616,
      "ヶ": 2617,
      "・": 2618,
      "ー": 2619,
      "ヽ": 2620,
      "ヾ": 2621,
      "ㄟ": 2622,
      "ㄩ": 2623,
      "㎜": 2624,
      "㎡": 2625,
      "㥡": 2626,
      "㱦": 2627,
      "㱨": 2628,
      "㲻": 2629,
      "㳡": 2630,
      "㴫": 2631,
      "㵥": 2632,
      "㵨": 2633,
      "㵴": 2634,
      "㶫": 2635,
      "㶮": 2636,
      "㷢": 2637,
      "㷨": 2638,
      "㷶": 2639,
      "㷽": 2640,
      "㹤": 2641,
      "㹫": 2642,
      "㼪": 2643,
      "㼱": 2644,
      "㽪": 2645,
      "㽲": 2646,
      "㾫": 2647,
      "㿨": 2648,
      "㿪": 2649,
      "㿴": 2650,
      "䰲": 2651,
      "䱧": 2652,
      "䱨": 2653,
      "䱬": 2654,
      "䲨": 2655,
      "䴫": 2656,
      "䶨": 2657,
      "一": 2658,
      "丁": 2659,
      "七": 2660,
      "万": 2661,
      "丈": 2662,
      "三": 2663,
      "上": 2664,
      "下": 2665,
      "不": 2666,
      "与": 2667,
      "专": 2668,
      "且": 2669,
      "世": 2670,
      "丘": 2671,
      "业": 2672,
      "东": 2673,
      "丝": 2674,
      "両": 2675,
      "丢": 2676,
      "两": 2677,
      "严": 2678,
      "並": 2679,
      "个": 2680,
      "丫": 2681,
      "中": 2682,
      "丰": 2683,
      "串": 2684,
      "丸": 2685,
      "丹": 2686,
      "为": 2687,
      "主": 2688,
      "丼": 2689,
      "丽": 2690,
      "举": 2691,
      "乃": 2692,
      "久": 2693,
      "么": 2694,
      "义": 2695,
      "之": 2696,
      "乌": 2697,
      "乎": 2698,
      "乏": 2699,
      "乐": 2700,
      "乔": 2701,
      "乗": 2702,
      "九": 2703,
      "也": 2704,
      "习": 2705,
      "乡": 2706,
      "书": 2707,
      "乫": 2708,
      "买": 2709,
      "乱": 2710,
      "乳": 2711,
      "亂": 2712,
      "了": 2713,
      "予": 2714,
      "争": 2715,
      "事": 2716,
      "二": 2717,
      "于": 2718,
      "亏": 2719,
      "云": 2720,
      "互": 2721,
      "五": 2722,
      "井": 2723,
      "亚": 2724,
      "些": 2725,
      "亟": 2726,
      "亡": 2727,
      "交": 2728,
      "亦": 2729,
      "产": 2730,
      "享": 2731,
      "京": 2732,
      "亮": 2733,
      "人": 2734,
      "亿": 2735,
      "什": 2736,
      "仁": 2737,
      "仅": 2738,
      "今": 2739,
      "介": 2740,
      "仍": 2741,
      "从": 2742,
      "仔": 2743,
      "仕": 2744,
      "他": 2745,
      "付": 2746,
      "仙": 2747,
      "代": 2748,
      "令": 2749,
      "以": 2750,
      "仧": 2751,
      "仨": 2752,
      "们": 2753,
      "仮": 2754,
      "仯": 2755,
      "仰": 2756,
      "件": 2757,
      "价": 2758,
      "任": 2759,
      "份": 2760,
      "企": 2761,
      "伊": 2762,
      "伎": 2763,
      "休": 2764,
      "众": 2765,
      "优": 2766,
      "伙": 2767,
      "会": 2768,
      "伝": 2769,
      "伟": 2770,
      "传": 2771,
      "伤": 2772,
      "伦": 2773,
      "伪": 2774,
      "估": 2775,
      "伴": 2776,
      "伸": 2777,
      "似": 2778,
      "但": 2779,
      "佈": 2780,
      "位": 2781,
      "低": 2782,
      "住": 2783,
      "佐": 2784,
      "体": 2785,
      "何": 2786,
      "佛": 2787,
      "作": 2788,
      "你": 2789,
      "佩": 2790,
      "佳": 2791,
      "使": 2792,
      "來": 2793,
      "例": 2794,
      "供": 2795,
      "依": 2796,
      "侠": 2797,
      "価": 2798,
      "侫": 2799,
      "侮": 2800,
      "侵": 2801,
      "便": 2802,
      "係": 2803,
      "促": 2804,
      "俄": 2805,
      "俊": 2806,
      "俗": 2807,
      "保": 2808,
      "信": 2809,
      "俪": 2810,
      "修": 2811,
      "俱": 2812,
      "俵": 2813,
      "倉": 2814,
      "個": 2815,
      "倍": 2816,
      "們": 2817,
      "倒": 2818,
      "候": 2819,
      "倚": 2820,
      "借": 2821,
      "値": 2822,
      "债": 2823,
      "值": 2824,
      "倾": 2825,
      "做": 2826,
      "停": 2827,
      "健": 2828,
      "側": 2829,
      "偿": 2830,
      "傘": 2831,
      "備": 2832,
      "储": 2833,
      "催": 2834,
      "傳": 2835,
      "像": 2836,
      "僕": 2837,
      "價": 2838,
      "優": 2839,
      "儿": 2840,
      "元": 2841,
      "兄": 2842,
      "充": 2843,
      "先": 2844,
      "光": 2845,
      "克": 2846,
      "免": 2847,
      "児": 2848,
      "党": 2849,
      "入": 2850,
      "內": 2851,
      "全": 2852,
      "兩": 2853,
      "八": 2854,
      "公": 2855,
      "六": 2856,
      "兰": 2857,
      "共": 2858,
      "关": 2859,
      "兴": 2860,
      "兵": 2861,
      "其": 2862,
      "具": 2863,
      "典": 2864,
      "兼": 2865,
      "内": 2866,
      "円": 2867,
      "再": 2868,
      "冒": 2869,
      "写": 2870,
      "军": 2871,
      "农": 2872,
      "冠": 2873,
      "冥": 2874,
      "冬": 2875,
      "冰": 2876,
      "冲": 2877,
      "决": 2878,
      "况": 2879,
      "冶": 2880,
      "冷": 2881,
      "净": 2882,
      "准": 2883,
      "凉": 2884,
      "凋": 2885,
      "减": 2886,
      "凝": 2887,
      "几": 2888,
      "凡": 2889,
      "凤": 2890,
      "凰": 2891,
      "凶": 2892,
      "凸": 2893,
      "出": 2894,
      "击": 2895,
      "刀": 2896,
      "分": 2897,
      "切": 2898,
      "刊": 2899,
      "划": 2900,
      "列": 2901,
      "刘": 2902,
      "则": 2903,
      "刚": 2904,
      "创": 2905,
      "初": 2906,
      "删": 2907,
      "判": 2908,
      "別": 2909,
      "利": 2910,
      "别": 2911,
      "到": 2912,
      "制": 2913,
      "刺": 2914,
      "刻": 2915,
      "則": 2916,
      "前": 2917,
      "剑": 2918,
      "剛": 2919,
      "剤": 2920,
      "剥": 2921,
      "副": 2922,
      "割": 2923,
      "創": 2924,
      "劃": 2925,
      "劇": 2926,
      "劑": 2927,
      "力": 2928,
      "劝": 2929,
      "办": 2930,
      "功": 2931,
      "加": 2932,
      "务": 2933,
      "动": 2934,
      "助": 2935,
      "努": 2936,
      "励": 2937,
      "劳": 2938,
      "労": 2939,
      "势": 2940,
      "勇": 2941,
      "勒": 2942,
      "動": 2943,
      "務": 2944,
      "勝": 2945,
      "勞": 2946,
      "募": 2947,
      "勢": 2948,
      "勤": 2949,
      "勾": 2950,
      "勿": 2951,
      "包": 2952,
      "化": 2953,
      "北": 2954,
      "匙": 2955,
      "匠": 2956,
      "区": 2957,
      "医": 2958,
      "區": 2959,
      "十": 2960,
      "千": 2961,
      "升": 2962,
      "午": 2963,
      "半": 2964,
      "华": 2965,
      "协": 2966,
      "卐": 2967,
      "協": 2968,
      "单": 2969,
      "卖": 2970,
      "南": 2971,
      "博": 2972,
      "卡": 2973,
      "卫": 2974,
      "印": 2975,
      "即": 2976,
      "却": 2977,
      "卵": 2978,
      "卷": 2979,
      "卸": 2980,
      "卻": 2981,
      "厂": 2982,
      "厅": 2983,
      "历": 2984,
      "压": 2985,
      "厚": 2986,
      "原": 2987,
      "厨": 2988,
      "去": 2989,
      "参": 2990,
      "參": 2991,
      "又": 2992,
      "及": 2993,
      "友": 2994,
      "双": 2995,
      "反": 2996,
      "发": 2997,
      "取": 2998,
      "受": 2999,
      "变": 3000,
      "口": 3001,
      "古": 3002,
      "句": 3003,
      "另": 3004,
      "只": 3005,
      "叫": 3006,
      "可": 3007,
      "台": 3008,
      "史": 3009,
      "右": 3010,
      "叶": 3011,
      "号": 3012,
      "司": 3013,
      "叻": 3014,
      "吃": 3015,
      "各": 3016,
      "合": 3017,
      "吉": 3018,
      "同": 3019,
      "名": 3020,
      "后": 3021,
      "吐": 3022,
      "向": 3023,
      "吕": 3024,
      "吗": 3025,
      "君": 3026,
      "否": 3027,
      "吧": 3028,
      "吨": 3029,
      "听": 3030,
      "启": 3031,
      "吴": 3032,
      "吵": 3033,
      "吸": 3034,
      "吹": 3035,
      "呀": 3036,
      "呂": 3037,
      "呆": 3038,
      "告": 3039,
      "员": 3040,
      "呢": 3041,
      "周": 3042,
      "味": 3043,
      "呼": 3044,
      "命": 3045,
      "咆": 3046,
      "和": 3047,
      "咒": 3048,
      "咖": 3049,
      "咲": 3050,
      "咳": 3051,
      "咽": 3052,
      "品": 3053,
      "哄": 3054,
      "哈": 3055,
      "响": 3056,
      "員": 3057,
      "哥": 3058,
      "哪": 3059,
      "哮": 3060,
      "哲": 3061,
      "唐": 3062,
      "售": 3063,
      "唱": 3064,
      "商": 3065,
      "啊": 3066,
      "問": 3067,
      "啡": 3068,
      "啥": 3069,
      "啦": 3070,
      "善": 3071,
      "喊": 3072,
      "喔": 3073,
      "喚": 3074,
      "喜": 3075,
      "喫": 3076,
      "單": 3077,
      "営": 3078,
      "嗎": 3079,
      "嗓": 3080,
      "嗤": 3081,
      "嗽": 3082,
      "嘉": 3083,
      "嘴": 3084,
      "器": 3085,
      "噪": 3086,
      "四": 3087,
      "回": 3088,
      "因": 3089,
      "团": 3090,
      "団": 3091,
      "园": 3092,
      "囲": 3093,
      "围": 3094,
      "固": 3095,
      "国": 3096,
      "图": 3097,
      "圆": 3098,
      "國": 3099,
      "園": 3100,
      "圓": 3101,
      "團": 3102,
      "土": 3103,
      "圣": 3104,
      "在": 3105,
      "地": 3106,
      "场": 3107,
      "圾": 3108,
      "坂": 3109,
      "均": 3110,
      "坊": 3111,
      "坏": 3112,
      "坐": 3113,
      "块": 3114,
      "坚": 3115,
      "坛": 3116,
      "垃": 3117,
      "型": 3118,
      "埃": 3119,
      "城": 3120,
      "域": 3121,
      "執": 3122,
      "培": 3123,
      "基": 3124,
      "埼": 3125,
      "堂": 3126,
      "堡": 3127,
      "堰": 3128,
      "報": 3129,
      "場": 3130,
      "塔": 3131,
      "塞": 3132,
      "填": 3133,
      "塾": 3134,
      "境": 3135,
      "墓": 3136,
      "増": 3137,
      "增": 3138,
      "壕": 3139,
      "壤": 3140,
      "士": 3141,
      "壮": 3142,
      "声": 3143,
      "売": 3144,
      "处": 3145,
      "备": 3146,
      "変": 3147,
      "复": 3148,
      "夏": 3149,
      "夕": 3150,
      "外": 3151,
      "多": 3152,
      "夜": 3153,
      "够": 3154,
      "夢": 3155,
      "大": 3156,
      "天": 3157,
      "太": 3158,
      "夫": 3159,
      "央": 3160,
      "失": 3161,
      "头": 3162,
      "夷": 3163,
      "夸": 3164,
      "奇": 3165,
      "奈": 3166,
      "奉": 3167,
      "奋": 3168,
      "奏": 3169,
      "奔": 3170,
      "奖": 3171,
      "奥": 3172,
      "奧": 3173,
      "女": 3174,
      "她": 3175,
      "好": 3176,
      "如": 3177,
      "妇": 3178,
      "妍": 3179,
      "妖": 3180,
      "妝": 3181,
      "妨": 3182,
      "妹": 3183,
      "妻": 3184,
      "姆": 3185,
      "姉": 3186,
      "姊": 3187,
      "始": 3188,
      "姐": 3189,
      "委": 3190,
      "姫": 3191,
      "姻": 3192,
      "威": 3193,
      "娘": 3194,
      "娜": 3195,
      "娱": 3196,
      "婆": 3197,
      "婚": 3198,
      "婦": 3199,
      "婽": 3200,
      "媒": 3201,
      "媛": 3202,
      "嬉": 3203,
      "子": 3204,
      "孔": 3205,
      "字": 3206,
      "存": 3207,
      "季": 3208,
      "学": 3209,
      "孩": 3210,
      "孫": 3211,
      "學": 3212,
      "宁": 3213,
      "它": 3214,
      "宇": 3215,
      "守": 3216,
      "安": 3217,
      "完": 3218,
      "宗": 3219,
      "官": 3220,
      "宙": 3221,
      "定": 3222,
      "宜": 3223,
      "宝": 3224,
      "实": 3225,
      "実": 3226,
      "审": 3227,
      "客": 3228,
      "宣": 3229,
      "室": 3230,
      "宫": 3231,
      "宮": 3232,
      "害": 3233,
      "家": 3234,
      "容": 3235,
      "宾": 3236,
      "宿": 3237,
      "寂": 3238,
      "密": 3239,
      "富": 3240,
      "寒": 3241,
      "寝": 3242,
      "寞": 3243,
      "察": 3244,
      "實": 3245,
      "寧": 3246,
      "寸": 3247,
      "对": 3248,
      "寺": 3249,
      "寻": 3250,
      "导": 3251,
      "対": 3252,
      "寿": 3253,
      "封": 3254,
      "射": 3255,
      "将": 3256,
      "將": 3257,
      "專": 3258,
      "對": 3259,
      "導": 3260,
      "小": 3261,
      "少": 3262,
      "尔": 3263,
      "尖": 3264,
      "尚": 3265,
      "尝": 3266,
      "尤": 3267,
      "尬": 3268,
      "就": 3269,
      "尴": 3270,
      "尹": 3271,
      "尽": 3272,
      "尾": 3273,
      "局": 3274,
      "层": 3275,
      "居": 3276,
      "屈": 3277,
      "届": 3278,
      "屋": 3279,
      "屏": 3280,
      "展": 3281,
      "属": 3282,
      "履": 3283,
      "屬": 3284,
      "山": 3285,
      "岁": 3286,
      "岐": 3287,
      "岛": 3288,
      "岡": 3289,
      "岩": 3290,
      "岸": 3291,
      "岻": 3292,
      "岿": 3293,
      "峰": 3294,
      "島": 3295,
      "崇": 3296,
      "崎": 3297,
      "崩": 3298,
      "嶥": 3299,
      "嶨": 3300,
      "川": 3301,
      "州": 3302,
      "巡": 3303,
      "巢": 3304,
      "工": 3305,
      "左": 3306,
      "巧": 3307,
      "巨": 3308,
      "巩": 3309,
      "差": 3310,
      "己": 3311,
      "已": 3312,
      "巴": 3313,
      "巷": 3314,
      "币": 3315,
      "市": 3316,
      "布": 3317,
      "师": 3318,
      "希": 3319,
      "帣": 3320,
      "带": 3321,
      "師": 3322,
      "席": 3323,
      "帮": 3324,
      "帳": 3325,
      "常": 3326,
      "帽": 3327,
      "幅": 3328,
      "幫": 3329,
      "干": 3330,
      "平": 3331,
      "年": 3332,
      "并": 3333,
      "幸": 3334,
      "幹": 3335,
      "幾": 3336,
      "广": 3337,
      "庁": 3338,
      "広": 3339,
      "庆": 3340,
      "床": 3341,
      "序": 3342,
      "库": 3343,
      "应": 3344,
      "底": 3345,
      "店": 3346,
      "府": 3347,
      "废": 3348,
      "度": 3349,
      "座": 3350,
      "庫": 3351,
      "庭": 3352,
      "康": 3353,
      "廉": 3354,
      "廊": 3355,
      "廓": 3356,
      "廠": 3357,
      "廢": 3358,
      "廣": 3359,
      "廳": 3360,
      "延": 3361,
      "廷": 3362,
      "建": 3363,
      "开": 3364,
      "弁": 3365,
      "异": 3366,
      "弄": 3367,
      "式": 3368,
      "引": 3369,
      "弟": 3370,
      "张": 3371,
      "弦": 3372,
      "弰": 3373,
      "弱": 3374,
      "張": 3375,
      "強": 3376,
      "弹": 3377,
      "强": 3378,
      "归": 3379,
      "当": 3380,
      "录": 3381,
      "形": 3382,
      "彦": 3383,
      "彩": 3384,
      "影": 3385,
      "役": 3386,
      "彼": 3387,
      "往": 3388,
      "征": 3389,
      "径": 3390,
      "待": 3391,
      "很": 3392,
      "徊": 3393,
      "律": 3394,
      "後": 3395,
      "従": 3396,
      "得": 3397,
      "徘": 3398,
      "從": 3399,
      "御": 3400,
      "微": 3401,
      "徳": 3402,
      "徴": 3403,
      "徵": 3404,
      "德": 3405,
      "徽": 3406,
      "心": 3407,
      "必": 3408,
      "忍": 3409,
      "志": 3410,
      "忘": 3411,
      "忙": 3412,
      "応": 3413,
      "忧": 3414,
      "忨": 3415,
      "忪": 3416,
      "快": 3417,
      "念": 3418,
      "忽": 3419,
      "怀": 3420,
      "态": 3421,
      "怎": 3422,
      "怕": 3423,
      "怜": 3424,
      "思": 3425,
      "急": 3426,
      "性": 3427,
      "怯": 3428,
      "总": 3429,
      "恋": 3430,
      "恒": 3431,
      "恩": 3432,
      "息": 3433,
      "恶": 3434,
      "悄": 3435,
      "悉": 3436,
      "悔": 3437,
      "悟": 3438,
      "患": 3439,
      "您": 3440,
      "悩": 3441,
      "悲": 3442,
      "情": 3443,
      "惜": 3444,
      "惠": 3445,
      "惡": 3446,
      "惰": 3447,
      "想": 3448,
      "意": 3449,
      "愛": 3450,
      "感": 3451,
      "愣": 3452,
      "愿": 3453,
      "慈": 3454,
      "態": 3455,
      "慢": 3456,
      "慧": 3457,
      "慮": 3458,
      "慰": 3459,
      "憂": 3460,
      "憋": 3461,
      "憶": 3462,
      "懂": 3463,
      "懇": 3464,
      "應": 3465,
      "懒": 3466,
      "懵": 3467,
      "戈": 3468,
      "戏": 3469,
      "成": 3470,
      "我": 3471,
      "或": 3472,
      "战": 3473,
      "戰": 3474,
      "戴": 3475,
      "户": 3476,
      "戸": 3477,
      "房": 3478,
      "所": 3479,
      "手": 3480,
      "才": 3481,
      "扑": 3482,
      "打": 3483,
      "扔": 3484,
      "払": 3485,
      "执": 3486,
      "扩": 3487,
      "扬": 3488,
      "扭": 3489,
      "批": 3490,
      "扼": 3491,
      "找": 3492,
      "承": 3493,
      "技": 3494,
      "抄": 3495,
      "抉": 3496,
      "把": 3497,
      "抑": 3498,
      "抓": 3499,
      "投": 3500,
      "抗": 3501,
      "折": 3502,
      "抚": 3503,
      "抛": 3504,
      "抜": 3505,
      "択": 3506,
      "抢": 3507,
      "护": 3508,
      "报": 3509,
      "披": 3510,
      "抬": 3511,
      "抱": 3512,
      "抵": 3513,
      "押": 3514,
      "抽": 3515,
      "担": 3516,
      "拍": 3517,
      "拐": 3518,
      "拒": 3519,
      "拓": 3520,
      "招": 3521,
      "拜": 3522,
      "拝": 3523,
      "拟": 3524,
      "拥": 3525,
      "择": 3526,
      "括": 3527,
      "拳": 3528,
      "拼": 3529,
      "拾": 3530,
      "拿": 3531,
      "持": 3532,
      "挂": 3533,
      "指": 3534,
      "按": 3535,
      "挖": 3536,
      "挚": 3537,
      "挟": 3538,
      "挥": 3539,
      "挫": 3540,
      "捐": 3541,
      "损": 3542,
      "捡": 3543,
      "换": 3544,
      "捣": 3545,
      "据": 3546,
      "捻": 3547,
      "掀": 3548,
      "掉": 3549,
      "掐": 3550,
      "排": 3551,
      "掛": 3552,
      "探": 3553,
      "接": 3554,
      "控": 3555,
      "推": 3556,
      "掩": 3557,
      "措": 3558,
      "掲": 3559,
      "揉": 3560,
      "提": 3561,
      "插": 3562,
      "揭": 3563,
      "援": 3564,
      "揺": 3565,
      "搂": 3566,
      "損": 3567,
      "搭": 3568,
      "携": 3569,
      "摄": 3570,
      "摇": 3571,
      "摊": 3572,
      "摔": 3573,
      "摘": 3574,
      "摩": 3575,
      "撑": 3576,
      "播": 3577,
      "撮": 3578,
      "撰": 3579,
      "撲": 3580,
      "擁": 3581,
      "擅": 3582,
      "擇": 3583,
      "操": 3584,
      "據": 3585,
      "擬": 3586,
      "攒": 3587,
      "攝": 3588,
      "支": 3589,
      "收": 3590,
      "改": 3591,
      "放": 3592,
      "政": 3593,
      "故": 3594,
      "效": 3595,
      "敏": 3596,
      "救": 3597,
      "教": 3598,
      "敢": 3599,
      "散": 3600,
      "敨": 3601,
      "敬": 3602,
      "数": 3603,
      "整": 3604,
      "文": 3605,
      "斐": 3606,
      "斗": 3607,
      "料": 3608,
      "斜": 3609,
      "斡": 3610,
      "斤": 3611,
      "断": 3612,
      "斯": 3613,
      "新": 3614,
      "斷": 3615,
      "方": 3616,
      "於": 3617,
      "施": 3618,
      "旁": 3619,
      "旅": 3620,
      "旋": 3621,
      "族": 3622,
      "无": 3623,
      "既": 3624,
      "日": 3625,
      "旨": 3626,
      "早": 3627,
      "旬": 3628,
      "旱": 3629,
      "时": 3630,
      "昇": 3631,
      "昊": 3632,
      "明": 3633,
      "易": 3634,
      "昔": 3635,
      "星": 3636,
      "映": 3637,
      "春": 3638,
      "昨": 3639,
      "昭": 3640,
      "是": 3641,
      "昼": 3642,
      "显": 3643,
      "時": 3644,
      "晒": 3645,
      "晚": 3646,
      "晨": 3647,
      "普": 3648,
      "景": 3649,
      "晴": 3650,
      "晶": 3651,
      "智": 3652,
      "晾": 3653,
      "暂": 3654,
      "暈": 3655,
      "暖": 3656,
      "暗": 3657,
      "暢": 3658,
      "暮": 3659,
      "暴": 3660,
      "曉": 3661,
      "曜": 3662,
      "曝": 3663,
      "曲": 3664,
      "更": 3665,
      "書": 3666,
      "曹": 3667,
      "曾": 3668,
      "替": 3669,
      "最": 3670,
      "會": 3671,
      "月": 3672,
      "有": 3673,
      "朋": 3674,
      "服": 3675,
      "朗": 3676,
      "望": 3677,
      "朝": 3678,
      "期": 3679,
      "朦": 3680,
      "木": 3681,
      "未": 3682,
      "末": 3683,
      "本": 3684,
      "札": 3685,
      "术": 3686,
      "朵": 3687,
      "机": 3688,
      "杀": 3689,
      "杂": 3690,
      "权": 3691,
      "杆": 3692,
      "李": 3693,
      "杏": 3694,
      "材": 3695,
      "村": 3696,
      "杞": 3697,
      "束": 3698,
      "条": 3699,
      "来": 3700,
      "杭": 3701,
      "杯": 3702,
      "杰": 3703,
      "東": 3704,
      "杷": 3705,
      "松": 3706,
      "板": 3707,
      "极": 3708,
      "构": 3709,
      "枇": 3710,
      "枉": 3711,
      "析": 3712,
      "林": 3713,
      "枚": 3714,
      "果": 3715,
      "枝": 3716,
      "架": 3717,
      "枸": 3718,
      "柄": 3719,
      "柒": 3720,
      "染": 3721,
      "柔": 3722,
      "查": 3723,
      "柱": 3724,
      "栃": 3725,
      "标": 3726,
      "栏": 3727,
      "树": 3728,
      "栠": 3729,
      "校": 3730,
      "株": 3731,
      "样": 3732,
      "核": 3733,
      "根": 3734,
      "格": 3735,
      "栽": 3736,
      "桂": 3737,
      "桃": 3738,
      "框": 3739,
      "案": 3740,
      "桌": 3741,
      "桑": 3742,
      "桜": 3743,
      "档": 3744,
      "桳": 3745,
      "桴": 3746,
      "桶": 3747,
      "桷": 3748,
      "桿": 3749,
      "梁": 3750,
      "梅": 3751,
      "條": 3752,
      "梦": 3753,
      "梨": 3754,
      "梯": 3755,
      "械": 3756,
      "梱": 3757,
      "棄": 3758,
      "棒": 3759,
      "棕": 3760,
      "森": 3761,
      "棱": 3762,
      "椅": 3763,
      "植": 3764,
      "椎": 3765,
      "検": 3766,
      "椭": 3767,
      "楂": 3768,
      "業": 3769,
      "極": 3770,
      "楼": 3771,
      "楽": 3772,
      "概": 3773,
      "構": 3774,
      "槐": 3775,
      "様": 3776,
      "槾": 3777,
      "樓": 3778,
      "標": 3779,
      "模": 3780,
      "樣": 3781,
      "権": 3782,
      "横": 3783,
      "樱": 3784,
      "橘": 3785,
      "機": 3786,
      "櫃": 3787,
      "櫥": 3788,
      "欄": 3789,
      "權": 3790,
      "次": 3791,
      "欢": 3792,
      "欣": 3793,
      "欧": 3794,
      "欲": 3795,
      "款": 3796,
      "歉": 3797,
      "歌": 3798,
      "歓": 3799,
      "止": 3800,
      "正": 3801,
      "此": 3802,
      "步": 3803,
      "武": 3804,
      "歩": 3805,
      "歲": 3806,
      "歳": 3807,
      "歴": 3808,
      "歸": 3809,
      "死": 3810,
      "殊": 3811,
      "殖": 3812,
      "段": 3813,
      "殺": 3814,
      "殻": 3815,
      "毅": 3816,
      "母": 3817,
      "毎": 3818,
      "每": 3819,
      "比": 3820,
      "毕": 3821,
      "毛": 3822,
      "毫": 3823,
      "氏": 3824,
      "民": 3825,
      "气": 3826,
      "気": 3827,
      "氣": 3828,
      "氧": 3829,
      "氲": 3830,
      "水": 3831,
      "氷": 3832,
      "永": 3833,
      "汁": 3834,
      "求": 3835,
      "汇": 3836,
      "汉": 3837,
      "汗": 3838,
      "江": 3839,
      "池": 3840,
      "污": 3841,
      "汤": 3842,
      "汦": 3843,
      "汨": 3844,
      "決": 3845,
      "汽": 3846,
      "汾": 3847,
      "沉": 3848,
      "沒": 3849,
      "沖": 3850,
      "沙": 3851,
      "沟": 3852,
      "没": 3853,
      "沦": 3854,
      "沧": 3855,
      "沨": 3856,
      "沱": 3857,
      "河": 3858,
      "沸": 3859,
      "油": 3860,
      "治": 3861,
      "沼": 3862,
      "沾": 3863,
      "泉": 3864,
      "法": 3865,
      "泛": 3866,
      "泡": 3867,
      "波": 3868,
      "泥": 3869,
      "注": 3870,
      "泪": 3871,
      "泰": 3872,
      "泵": 3873,
      "洁": 3874,
      "洒": 3875,
      "洞": 3876,
      "津": 3877,
      "洪": 3878,
      "洫": 3879,
      "洱": 3880,
      "洲": 3881,
      "活": 3882,
      "派": 3883,
      "流": 3884,
      "浇": 3885,
      "浊": 3886,
      "测": 3887,
      "济": 3888,
      "浏": 3889,
      "浙": 3890,
      "浜": 3891,
      "浦": 3892,
      "浪": 3893,
      "浮": 3894,
      "浱": 3895,
      "浴": 3896,
      "海": 3897,
      "消": 3898,
      "涛": 3899,
      "涡": 3900,
      "润": 3901,
      "涨": 3902,
      "涫": 3903,
      "涯": 3904,
      "液": 3905,
      "涵": 3906,
      "淡": 3907,
      "淢": 3908,
      "淨": 3909,
      "淫": 3910,
      "淮": 3911,
      "深": 3912,
      "淳": 3913,
      "混": 3914,
      "清": 3915,
      "渐": 3916,
      "減": 3917,
      "渡": 3918,
      "渣": 3919,
      "温": 3920,
      "港": 3921,
      "游": 3922,
      "渻": 3923,
      "湖": 3924,
      "湘": 3925,
      "湛": 3926,
      "湯": 3927,
      "湷": 3928,
      "湾": 3929,
      "満": 3930,
      "源": 3931,
      "溢": 3932,
      "溪": 3933,
      "溫": 3934,
      "滋": 3935,
      "滑": 3936,
      "满": 3937,
      "滤": 3938,
      "滨": 3939,
      "滮": 3940,
      "滴": 3941,
      "滿": 3942,
      "漂": 3943,
      "漏": 3944,
      "演": 3945,
      "漢": 3946,
      "漫": 3947,
      "漸": 3948,
      "漾": 3949,
      "潍": 3950,
      "潛": 3951,
      "潜": 3952,
      "潟": 3953,
      "潭": 3954,
      "潮": 3955,
      "澈": 3956,
      "澤": 3957,
      "澫": 3958,
      "澭": 3959,
      "澳": 3960,
      "激": 3961,
      "濪": 3962,
      "濴": 3963,
      "瀬": 3964,
      "灌": 3965,
      "灣": 3966,
      "火": 3967,
      "灯": 3968,
      "灰": 3969,
      "灵": 3970,
      "炉": 3971,
      "炎": 3972,
      "炒": 3973,
      "炙": 3974,
      "炫": 3975,
      "炸": 3976,
      "点": 3977,
      "為": 3978,
      "烂": 3979,
      "烈": 3980,
      "烫": 3981,
      "热": 3982,
      "無": 3983,
      "焦": 3984,
      "然": 3985,
      "煙": 3986,
      "煜": 3987,
      "照": 3988,
      "煮": 3989,
      "煽": 3990,
      "熊": 3991,
      "熙": 3992,
      "熟": 3993,
      "熱": 3994,
      "熾": 3995,
      "燃": 3996,
      "營": 3997,
      "燥": 3998,
      "爆": 3999,
      "爭": 4000,
      "爱": 4001,
      "父": 4002,
      "爷": 4003,
      "爽": 4004,
      "片": 4005,
      "版": 4006,
      "牌": 4007,
      "牙": 4008,
      "牛": 4009,
      "牧": 4010,
      "物": 4011,
      "牵": 4012,
      "特": 4013,
      "犯": 4014,
      "状": 4015,
      "狀": 4016,
      "狙": 4017,
      "狠": 4018,
      "独": 4019,
      "狼": 4020,
      "猎": 4021,
      "猜": 4022,
      "猪": 4023,
      "献": 4024,
      "猴": 4025,
      "獎": 4026,
      "獴": 4027,
      "率": 4028,
      "玉": 4029,
      "王": 4030,
      "玛": 4031,
      "玩": 4032,
      "环": 4033,
      "现": 4034,
      "玻": 4035,
      "珍": 4036,
      "珠": 4037,
      "班": 4038,
      "現": 4039,
      "球": 4040,
      "理": 4041,
      "琠": 4042,
      "琢": 4043,
      "琳": 4044,
      "璃": 4045,
      "環": 4046,
      "瓜": 4047,
      "瓣": 4048,
      "瓷": 4049,
      "甘": 4050,
      "甚": 4051,
      "甜": 4052,
      "生": 4053,
      "産": 4054,
      "用": 4055,
      "田": 4056,
      "由": 4057,
      "甲": 4058,
      "申": 4059,
      "电": 4060,
      "男": 4061,
      "町": 4062,
      "画": 4063,
      "畂": 4064,
      "界": 4065,
      "畑": 4066,
      "留": 4067,
      "畜": 4068,
      "略": 4069,
      "番": 4070,
      "異": 4071,
      "當": 4072,
      "畿": 4073,
      "疆": 4074,
      "疇": 4075,
      "疏": 4076,
      "疑": 4077,
      "疲": 4078,
      "疾": 4079,
      "病": 4080,
      "症": 4081,
      "痕": 4082,
      "痛": 4083,
      "痩": 4084,
      "瘤": 4085,
      "瘵": 4086,
      "療": 4087,
      "癡": 4088,
      "癢": 4089,
      "癸": 4090,
      "発": 4091,
      "登": 4092,
      "發": 4093,
      "白": 4094,
      "百": 4095,
      "的": 4096,
      "皆": 4097,
      "皇": 4098,
      "皮": 4099,
      "皿": 4100,
      "盆": 4101,
      "益": 4102,
      "监": 4103,
      "盒": 4104,
      "盖": 4105,
      "盘": 4106,
      "盛": 4107,
      "盜": 4108,
      "盟": 4109,
      "監": 4110,
      "盤": 4111,
      "目": 4112,
      "直": 4113,
      "相": 4114,
      "盾": 4115,
      "省": 4116,
      "眉": 4117,
      "看": 4118,
      "県": 4119,
      "真": 4120,
      "眠": 4121,
      "眺": 4122,
      "眼": 4123,
      "着": 4124,
      "睡": 4125,
      "督": 4126,
      "瞳": 4127,
      "矛": 4128,
      "矢": 4129,
      "知": 4130,
      "短": 4131,
      "矮": 4132,
      "石": 4133,
      "矿": 4134,
      "砂": 4135,
      "研": 4136,
      "砖": 4137,
      "破": 4138,
      "础": 4139,
      "硬": 4140,
      "确": 4141,
      "硹": 4142,
      "碍": 4143,
      "碎": 4144,
      "碟": 4145,
      "確": 4146,
      "磁": 4147,
      "磨": 4148,
      "礁": 4149,
      "礙": 4150,
      "示": 4151,
      "礼": 4152,
      "社": 4153,
      "祖": 4154,
      "神": 4155,
      "祥": 4156,
      "票": 4157,
      "祷": 4158,
      "禁": 4159,
      "福": 4160,
      "禧": 4161,
      "禮": 4162,
      "离": 4163,
      "秀": 4164,
      "私": 4165,
      "秋": 4166,
      "种": 4167,
      "科": 4168,
      "秒": 4169,
      "秘": 4170,
      "秦": 4171,
      "积": 4172,
      "称": 4173,
      "移": 4174,
      "稀": 4175,
      "稅": 4176,
      "程": 4177,
      "税": 4178,
      "稣": 4179,
      "種": 4180,
      "稳": 4181,
      "稽": 4182,
      "稿": 4183,
      "穆": 4184,
      "積": 4185,
      "穴": 4186,
      "究": 4187,
      "空": 4188,
      "穿": 4189,
      "突": 4190,
      "窗": 4191,
      "窘": 4192,
      "立": 4193,
      "站": 4194,
      "竟": 4195,
      "章": 4196,
      "童": 4197,
      "竭": 4198,
      "端": 4199,
      "競": 4200,
      "竹": 4201,
      "笑": 4202,
      "笔": 4203,
      "符": 4204,
      "第": 4205,
      "筆": 4206,
      "等": 4207,
      "筑": 4208,
      "答": 4209,
      "策": 4210,
      "筛": 4211,
      "简": 4212,
      "算": 4213,
      "管": 4214,
      "箱": 4215,
      "節": 4216,
      "範": 4217,
      "篇": 4218,
      "築": 4219,
      "篓": 4220,
      "籍": 4221,
      "籨": 4222,
      "米": 4223,
      "类": 4224,
      "粒": 4225,
      "粗": 4226,
      "粥": 4227,
      "粨": 4228,
      "粮": 4229,
      "精": 4230,
      "糊": 4231,
      "糕": 4232,
      "糖": 4233,
      "糙": 4234,
      "糟": 4235,
      "系": 4236,
      "糾": 4237,
      "約": 4238,
      "紅": 4239,
      "紊": 4240,
      "納": 4241,
      "紗": 4242,
      "紙": 4243,
      "級": 4244,
      "紛": 4245,
      "素": 4246,
      "索": 4247,
      "紧": 4248,
      "紫": 4249,
      "累": 4250,
      "細": 4251,
      "紳": 4252,
      "紵": 4253,
      "紹": 4254,
      "終": 4255,
      "組": 4256,
      "経": 4257,
      "結": 4258,
      "絡": 4259,
      "絥": 4260,
      "給": 4261,
      "統": 4262,
      "絵": 4263,
      "經": 4264,
      "継": 4265,
      "続": 4266,
      "綜": 4267,
      "網": 4268,
      "綴": 4269,
      "綺": 4270,
      "緊": 4271,
      "総": 4272,
      "緑": 4273,
      "緒": 4274,
      "線": 4275,
      "締": 4276,
      "緩": 4277,
      "緵": 4278,
      "縁": 4279,
      "縄": 4280,
      "縫": 4281,
      "縮": 4282,
      "總": 4283,
      "繁": 4284,
      "繋": 4285,
      "織": 4286,
      "繷": 4287,
      "繼": 4288,
      "續": 4289,
      "红": 4290,
      "约": 4291,
      "级": 4292,
      "纯": 4293,
      "纲": 4294,
      "纳": 4295,
      "纷": 4296,
      "纹": 4297,
      "纽": 4298,
      "线": 4299,
      "练": 4300,
      "组": 4301,
      "细": 4302,
      "织": 4303,
      "终": 4304,
      "绍": 4305,
      "经": 4306,
      "绑": 4307,
      "绒": 4308,
      "结": 4309,
      "绘": 4310,
      "给": 4311,
      "络": 4312,
      "绝": 4313,
      "统": 4314,
      "绢": 4315,
      "绥": 4316,
      "继": 4317,
      "绩": 4318,
      "续": 4319,
      "绰": 4320,
      "维": 4321,
      "综": 4322,
      "绽": 4323,
      "绿": 4324,
      "缆": 4325,
      "缓": 4326,
      "编": 4327,
      "缘": 4328,
      "缩": 4329,
      "缴": 4330,
      "缶": 4331,
      "缺": 4332,
      "网": 4333,
      "罗": 4334,
      "罪": 4335,
      "置": 4336,
      "羊": 4337,
      "美": 4338,
      "群": 4339,
      "義": 4340,
      "羽": 4341,
      "習": 4342,
      "翪": 4343,
      "翻": 4344,
      "翼": 4345,
      "耀": 4346,
      "老": 4347,
      "考": 4348,
      "者": 4349,
      "而": 4350,
      "耍": 4351,
      "耐": 4352,
      "耗": 4353,
      "耳": 4354,
      "耶": 4355,
      "耿": 4356,
      "聊": 4357,
      "联": 4358,
      "聚": 4359,
      "聞": 4360,
      "聴": 4361,
      "職": 4362,
      "肃": 4363,
      "肅": 4364,
      "肉": 4365,
      "肌": 4366,
      "肝": 4367,
      "肠": 4368,
      "股": 4369,
      "肤": 4370,
      "肥": 4371,
      "肩": 4372,
      "肮": 4373,
      "肯": 4374,
      "育": 4375,
      "肺": 4376,
      "肿": 4377,
      "胃": 4378,
      "胆": 4379,
      "胎": 4380,
      "胖": 4381,
      "胡": 4382,
      "胧": 4383,
      "胴": 4384,
      "胸": 4385,
      "能": 4386,
      "脂": 4387,
      "脈": 4388,
      "脍": 4389,
      "脏": 4390,
      "脑": 4391,
      "脩": 4392,
      "脱": 4393,
      "脸": 4394,
      "脾": 4395,
      "腎": 4396,
      "腐": 4397,
      "腑": 4398,
      "腕": 4399,
      "腦": 4400,
      "腫": 4401,
      "腰": 4402,
      "腹": 4403,
      "腿": 4404,
      "膏": 4405,
      "膜": 4406,
      "膠": 4407,
      "膳": 4408,
      "臟": 4409,
      "臨": 4410,
      "自": 4411,
      "臭": 4412,
      "至": 4413,
      "致": 4414,
      "與": 4415,
      "興": 4416,
      "舍": 4417,
      "舎": 4418,
      "舒": 4419,
      "舖": 4420,
      "舗": 4421,
      "舛": 4422,
      "舞": 4423,
      "舟": 4424,
      "航": 4425,
      "般": 4426,
      "良": 4427,
      "艰": 4428,
      "色": 4429,
      "艶": 4430,
      "艺": 4431,
      "节": 4432,
      "芝": 4433,
      "芦": 4434,
      "芭": 4435,
      "花": 4436,
      "芳": 4437,
      "芸": 4438,
      "芹": 4439,
      "芽": 4440,
      "苏": 4441,
      "苓": 4442,
      "苗": 4443,
      "若": 4444,
      "苦": 4445,
      "英": 4446,
      "范": 4447,
      "茗": 4448,
      "茨": 4449,
      "茯": 4450,
      "茶": 4451,
      "草": 4452,
      "荣": 4453,
      "药": 4454,
      "莱": 4455,
      "获": 4456,
      "莹": 4457,
      "菅": 4458,
      "菜": 4459,
      "華": 4460,
      "菱": 4461,
      "萄": 4462,
      "萌": 4463,
      "萎": 4464,
      "营": 4465,
      "萬": 4466,
      "落": 4467,
      "葉": 4468,
      "著": 4469,
      "葡": 4470,
      "董": 4471,
      "蒋": 4472,
      "蒙": 4473,
      "蒼": 4474,
      "蓄": 4475,
      "蓋": 4476,
      "蓝": 4477,
      "蔓": 4478,
      "蔡": 4479,
      "蔣": 4480,
      "蔵": 4481,
      "蔽": 4482,
      "蕉": 4483,
      "蕭": 4484,
      "蕴": 4485,
      "蕾": 4486,
      "薄": 4487,
      "薦": 4488,
      "藍": 4489,
      "藏": 4490,
      "藝": 4491,
      "藤": 4492,
      "藥": 4493,
      "蘇": 4494,
      "蘭": 4495,
      "虑": 4496,
      "處": 4497,
      "虚": 4498,
      "虛": 4499,
      "號": 4500,
      "虫": 4501,
      "虽": 4502,
      "蛋": 4503,
      "蝉": 4504,
      "蝶": 4505,
      "融": 4506,
      "螺": 4507,
      "血": 4508,
      "行": 4509,
      "術": 4510,
      "街": 4511,
      "衡": 4512,
      "衣": 4513,
      "表": 4514,
      "衰": 4515,
      "袁": 4516,
      "被": 4517,
      "袭": 4518,
      "裁": 4519,
      "装": 4520,
      "裏": 4521,
      "裙": 4522,
      "補": 4523,
      "裝": 4524,
      "裡": 4525,
      "製": 4526,
      "褐": 4527,
      "西": 4528,
      "要": 4529,
      "覆": 4530,
      "見": 4531,
      "規": 4532,
      "視": 4533,
      "覚": 4534,
      "覧": 4535,
      "親": 4536,
      "観": 4537,
      "见": 4538,
      "观": 4539,
      "规": 4540,
      "视": 4541,
      "览": 4542,
      "觉": 4543,
      "角": 4544,
      "解": 4545,
      "触": 4546,
      "言": 4547,
      "訂": 4548,
      "計": 4549,
      "訊": 4550,
      "記": 4551,
      "訟": 4552,
      "訪": 4553,
      "設": 4554,
      "許": 4555,
      "訴": 4556,
      "診": 4557,
      "証": 4558,
      "評": 4559,
      "詢": 4560,
      "試": 4561,
      "詰": 4562,
      "話": 4563,
      "該": 4564,
      "詳": 4565,
      "詹": 4566,
      "誌": 4567,
      "認": 4568,
      "誓": 4569,
      "誕": 4570,
      "語": 4571,
      "誤": 4572,
      "說": 4573,
      "読": 4574,
      "課": 4575,
      "調": 4576,
      "談": 4577,
      "請": 4578,
      "論": 4579,
      "諾": 4580,
      "講": 4581,
      "謝": 4582,
      "證": 4583,
      "識": 4584,
      "警": 4585,
      "譬": 4586,
      "護": 4587,
      "计": 4588,
      "订": 4589,
      "认": 4590,
      "讨": 4591,
      "让": 4592,
      "训": 4593,
      "议": 4594,
      "讯": 4595,
      "记": 4596,
      "讲": 4597,
      "许": 4598,
      "论": 4599,
      "设": 4600,
      "证": 4601,
      "评": 4602,
      "诅": 4603,
      "识": 4604,
      "诉": 4605,
      "词": 4606,
      "译": 4607,
      "试": 4608,
      "诗": 4609,
      "诚": 4610,
      "诛": 4611,
      "话": 4612,
      "诡": 4613,
      "询": 4614,
      "该": 4615,
      "详": 4616,
      "语": 4617,
      "误": 4618,
      "说": 4619,
      "请": 4620,
      "诺": 4621,
      "读": 4622,
      "谁": 4623,
      "调": 4624,
      "谈": 4625,
      "谊": 4626,
      "谋": 4627,
      "谐": 4628,
      "谓": 4629,
      "谕": 4630,
      "谜": 4631,
      "谢": 4632,
      "谨": 4633,
      "谱": 4634,
      "谷": 4635,
      "豆": 4636,
      "豉": 4637,
      "象": 4638,
      "豪": 4639,
      "豹": 4640,
      "貌": 4641,
      "貝": 4642,
      "負": 4643,
      "財": 4644,
      "貧": 4645,
      "貨": 4646,
      "販": 4647,
      "貫": 4648,
      "責": 4649,
      "貴": 4650,
      "買": 4651,
      "貸": 4652,
      "費": 4653,
      "貼": 4654,
      "貽": 4655,
      "賀": 4656,
      "資": 4657,
      "賤": 4658,
      "質": 4659,
      "購": 4660,
      "贈": 4661,
      "贝": 4662,
      "负": 4663,
      "贡": 4664,
      "财": 4665,
      "责": 4666,
      "贤": 4667,
      "败": 4668,
      "货": 4669,
      "质": 4670,
      "贩": 4671,
      "贬": 4672,
      "购": 4673,
      "贱": 4674,
      "贴": 4675,
      "贵": 4676,
      "贷": 4677,
      "贸": 4678,
      "费": 4679,
      "贺": 4680,
      "资": 4681,
      "赋": 4682,
      "赌": 4683,
      "赏": 4684,
      "赐": 4685,
      "赔": 4686,
      "赛": 4687,
      "赞": 4688,
      "赢": 4689,
      "赤": 4690,
      "赫": 4691,
      "走": 4692,
      "赵": 4693,
      "赶": 4694,
      "起": 4695,
      "超": 4696,
      "越": 4697,
      "趋": 4698,
      "趣": 4699,
      "足": 4700,
      "跑": 4701,
      "距": 4702,
      "跟": 4703,
      "跪": 4704,
      "路": 4705,
      "践": 4706,
      "踪": 4707,
      "躍": 4708,
      "身": 4709,
      "躲": 4710,
      "躺": 4711,
      "車": 4712,
      "軍": 4713,
      "転": 4714,
      "軨": 4715,
      "軳": 4716,
      "軽": 4717,
      "載": 4718,
      "輕": 4719,
      "輛": 4720,
      "輪": 4721,
      "輸": 4722,
      "车": 4723,
      "转": 4724,
      "轮": 4725,
      "软": 4726,
      "轰": 4727,
      "轻": 4728,
      "载": 4729,
      "较": 4730,
      "辆": 4731,
      "辑": 4732,
      "输": 4733,
      "辛": 4734,
      "辞": 4735,
      "辦": 4736,
      "辱": 4737,
      "農": 4738,
      "边": 4739,
      "込": 4740,
      "辽": 4741,
      "达": 4742,
      "迅": 4743,
      "过": 4744,
      "运": 4745,
      "近": 4746,
      "返": 4747,
      "还": 4748,
      "这": 4749,
      "进": 4750,
      "远": 4751,
      "连": 4752,
      "迪": 4753,
      "迫": 4754,
      "述": 4755,
      "迷": 4756,
      "迹": 4757,
      "追": 4758,
      "退": 4759,
      "送": 4760,
      "适": 4761,
      "逆": 4762,
      "选": 4763,
      "逊": 4764,
      "透": 4765,
      "逐": 4766,
      "递": 4767,
      "途": 4768,
      "這": 4769,
      "通": 4770,
      "速": 4771,
      "造": 4772,
      "連": 4773,
      "週": 4774,
      "逻": 4775,
      "遂": 4776,
      "遇": 4777,
      "運": 4778,
      "遍": 4779,
      "過": 4780,
      "道": 4781,
      "達": 4782,
      "違": 4783,
      "遗": 4784,
      "遠": 4785,
      "遣": 4786,
      "遥": 4787,
      "適": 4788,
      "遭": 4789,
      "選": 4790,
      "遼": 4791,
      "邀": 4792,
      "還": 4793,
      "邉": 4794,
      "邓": 4795,
      "那": 4796,
      "邦": 4797,
      "邮": 4798,
      "邸": 4799,
      "郁": 4800,
      "郎": 4801,
      "部": 4802,
      "都": 4803,
      "鄧": 4804,
      "鄭": 4805,
      "酉": 4806,
      "配": 4807,
      "酒": 4808,
      "酵": 4809,
      "酷": 4810,
      "酸": 4811,
      "醇": 4812,
      "醒": 4813,
      "醫": 4814,
      "采": 4815,
      "释": 4816,
      "里": 4817,
      "重": 4818,
      "野": 4819,
      "量": 4820,
      "金": 4821,
      "釣": 4822,
      "鈴": 4823,
      "鉢": 4824,
      "鉴": 4825,
      "銘": 4826,
      "錚": 4827,
      "錢": 4828,
      "錯": 4829,
      "録": 4830,
      "鍾": 4831,
      "鎌": 4832,
      "鏡": 4833,
      "针": 4834,
      "钟": 4835,
      "钢": 4836,
      "钥": 4837,
      "钮": 4838,
      "钱": 4839,
      "钳": 4840,
      "铁": 4841,
      "铃": 4842,
      "铐": 4843,
      "铭": 4844,
      "链": 4845,
      "销": 4846,
      "锁": 4847,
      "锅": 4848,
      "锈": 4849,
      "锋": 4850,
      "错": 4851,
      "锢": 4852,
      "锦": 4853,
      "锺": 4854,
      "長": 4855,
      "长": 4856,
      "門": 4857,
      "開": 4858,
      "間": 4859,
      "関": 4860,
      "閲": 4861,
      "關": 4862,
      "门": 4863,
      "闭": 4864,
      "问": 4865,
      "闲": 4866,
      "间": 4867,
      "闷": 4868,
      "闻": 4869,
      "阅": 4870,
      "阐": 4871,
      "阜": 4872,
      "队": 4873,
      "阪": 4874,
      "防": 4875,
      "阳": 4876,
      "阴": 4877,
      "阶": 4878,
      "阻": 4879,
      "阿": 4880,
      "陀": 4881,
      "附": 4882,
      "际": 4883,
      "陆": 4884,
      "陈": 4885,
      "降": 4886,
      "限": 4887,
      "陕": 4888,
      "院": 4889,
      "陣": 4890,
      "除": 4891,
      "险": 4892,
      "陪": 4893,
      "陰": 4894,
      "陳": 4895,
      "陶": 4896,
      "陷": 4897,
      "陸": 4898,
      "険": 4899,
      "陽": 4900,
      "階": 4901,
      "随": 4902,
      "隐": 4903,
      "隔": 4904,
      "隙": 4905,
      "際": 4906,
      "障": 4907,
      "隨": 4908,
      "难": 4909,
      "雄": 4910,
      "集": 4911,
      "雌": 4912,
      "雍": 4913,
      "雑": 4914,
      "難": 4915,
      "雨": 4916,
      "雪": 4917,
      "雰": 4918,
      "零": 4919,
      "雷": 4920,
      "電": 4921,
      "需": 4922,
      "霆": 4923,
      "震": 4924,
      "霍": 4925,
      "霑": 4926,
      "霞": 4927,
      "露": 4928,
      "青": 4929,
      "静": 4930,
      "非": 4931,
      "靠": 4932,
      "面": 4933,
      "革": 4934,
      "韓": 4935,
      "韩": 4936,
      "音": 4937,
      "頂": 4938,
      "頃": 4939,
      "項": 4940,
      "頒": 4941,
      "頭": 4942,
      "頼": 4943,
      "題": 4944,
      "額": 4945,
      "顔": 4946,
      "願": 4947,
      "類": 4948,
      "顧": 4949,
      "顯": 4950,
      "页": 4951,
      "顶": 4952,
      "项": 4953,
      "顺": 4954,
      "须": 4955,
      "顾": 4956,
      "顿": 4957,
      "预": 4958,
      "领": 4959,
      "频": 4960,
      "颖": 4961,
      "题": 4962,
      "额": 4963,
      "風": 4964,
      "风": 4965,
      "飘": 4966,
      "飛": 4967,
      "飞": 4968,
      "食": 4969,
      "飯": 4970,
      "飲": 4971,
      "飽": 4972,
      "養": 4973,
      "餐": 4974,
      "饭": 4975,
      "饰": 4976,
      "饼": 4977,
      "馆": 4978,
      "馒": 4979,
      "首": 4980,
      "香": 4981,
      "馬": 4982,
      "駅": 4983,
      "験": 4984,
      "驗": 4985,
      "驚": 4986,
      "马": 4987,
      "驱": 4988,
      "驼": 4989,
      "驾": 4990,
      "验": 4991,
      "骗": 4992,
      "骨": 4993,
      "骼": 4994,
      "髓": 4995,
      "體": 4996,
      "高": 4997,
      "髮": 4998,
      "鬆": 4999,
      "鬱": 5000,
      "魂": 5001,
      "魚": 5002,
      "鰡": 5003,
      "鱨": 5004,
      "鱾": 5005,
      "鲜": 5006,
      "鳥": 5007,
      "鵥": 5008,
      "鵬": 5009,
      "鷨": 5010,
      "鸟": 5011,
      "鸡": 5012,
      "鹏": 5013,
      "鹿": 5014,
      "麗": 5015,
      "麻": 5016,
      "麼": 5017,
      "黄": 5018,
      "黎": 5019,
      "黑": 5020,
      "黒": 5021,
      "默": 5022,
      "黛": 5023,
      "點": 5024,
      "黯": 5025,
      "黰": 5026,
      "鼮": 5027,
      "鼸": 5028,
      "鼻": 5029,
      "齐": 5030,
      "齒": 5031,
      "齢": 5032,
      "齻": 5033,
      "龄": 5034,
      "龍": 5035,
      "龙": 5036,
      "龜": 5037,
      "龫": 5038,
      "鿪": 5039,
      "ꝩ": 5040,
      "꡶": 5041,
      "꡾": 5042,
      "꧁": 5043,
      "꧂": 5044,
      "ꪔ": 5045,
      "ꪫ": 5046,
      "가": 5047,
      "각": 5048,
      "간": 5049,
      "감": 5050,
      "강": 5051,
      "개": 5052,
      "걦": 5053,
      "거": 5054,
      "건": 5055,
      "걿": 5056,
      "게": 5057,
      "겠": 5058,
      "겣": 5059,
      "겨": 5060,
      "견": 5061,
      "결": 5062,
      "경": 5063,
      "계": 5064,
      "고": 5065,
      "곡": 5066,
      "공": 5067,
      "과": 5068,
      "관": 5069,
      "광": 5070,
      "괵": 5071,
      "교": 5072,
      "국": 5073,
      "권": 5074,
      "궫": 5075,
      "근": 5076,
      "금": 5077,
      "긣": 5078,
      "기": 5079,
      "긴": 5080,
      "긻": 5081,
      "김": 5082,
      "까": 5083,
      "깤": 5084,
      "깫": 5085,
      "껹": 5086,
      "꼫": 5087,
      "꼸": 5088,
      "꽲": 5089,
      "꽹": 5090,
      "꾩": 5091,
      "꾫": 5092,
      "꿪": 5093,
      "나": 5094,
      "난": 5095,
      "남": 5096,
      "낮": 5097,
      "내": 5098,
      "너": 5099,
      "넘": 5100,
      "네": 5101,
      "년": 5102,
      "녕": 5103,
      "노": 5104,
      "녹": 5105,
      "는": 5106,
      "늘": 5107,
      "늦": 5108,
      "니": 5109,
      "다": 5110,
      "단": 5111,
      "담": 5112,
      "당": 5113,
      "대": 5114,
      "도": 5115,
      "돌": 5116,
      "동": 5117,
      "돼": 5118,
      "됐": 5119,
      "되": 5120,
      "두": 5121,
      "들": 5122,
      "듬": 5123,
      "등": 5124,
      "디": 5125,
      "따": 5126,
      "라": 5127,
      "락": 5128,
      "랐": 5129,
      "랑": 5130,
      "량": 5131,
      "러": 5132,
      "럼": 5133,
      "럽": 5134,
      "렸": 5135,
      "로": 5136,
      "롪": 5137,
      "롾": 5138,
      "롿": 5139,
      "료": 5140,
      "루": 5141,
      "류": 5142,
      "르": 5143,
      "른": 5144,
      "를": 5145,
      "리": 5146,
      "마": 5147,
      "만": 5148,
      "말": 5149,
      "맞": 5150,
      "며": 5151,
      "면": 5152,
      "명": 5153,
      "몇": 5154,
      "모": 5155,
      "목": 5156,
      "무": 5157,
      "문": 5158,
      "물": 5159,
      "뭐": 5160,
      "미": 5161,
      "민": 5162,
      "바": 5163,
      "박": 5164,
      "반": 5165,
      "발": 5166,
      "백": 5167,
      "밵": 5168,
      "뱦": 5169,
      "뱨": 5170,
      "뱬": 5171,
      "뱶": 5172,
      "뱾": 5173,
      "번": 5174,
      "벨": 5175,
      "벻": 5176,
      "별": 5177,
      "볤": 5178,
      "보": 5179,
      "복": 5180,
      "볼": 5181,
      "뵥": 5182,
      "부": 5183,
      "분": 5184,
      "불": 5185,
      "붨": 5186,
      "뷨": 5187,
      "뷽": 5188,
      "븴": 5189,
      "비": 5190,
      "빈": 5191,
      "빛": 5192,
      "빠": 5193,
      "빤": 5194,
      "빦": 5195,
      "빫": 5196,
      "뺣": 5197,
      "뺰": 5198,
      "뻯": 5199,
      "뻻": 5200,
      "뼼": 5201,
      "뾫": 5202,
      "뾭": 5203,
      "뿍": 5204,
      "뿨": 5205,
      "뿪": 5206,
      "뿴": 5207,
      "사": 5208,
      "삭": 5209,
      "산": 5210,
      "상": 5211,
      "생": 5212,
      "서": 5213,
      "선": 5214,
      "설": 5215,
      "성": 5216,
      "세": 5217,
      "소": 5218,
      "속": 5219,
      "수": 5220,
      "술": 5221,
      "스": 5222,
      "습": 5223,
      "시": 5224,
      "식": 5225,
      "신": 5226,
      "싶": 5227,
      "아": 5228,
      "안": 5229,
      "애": 5230,
      "야": 5231,
      "약": 5232,
      "양": 5233,
      "어": 5234,
      "억": 5235,
      "언": 5236,
      "업": 5237,
      "에": 5238,
      "엔": 5239,
      "여": 5240,
      "역": 5241,
      "연": 5242,
      "였": 5243,
      "영": 5244,
      "예": 5245,
      "오": 5246,
      "올": 5247,
      "와": 5248,
      "외": 5249,
      "요": 5250,
      "운": 5251,
      "울": 5252,
      "움": 5253,
      "워": 5254,
      "원": 5255,
      "월": 5256,
      "웠": 5257,
      "위": 5258,
      "유": 5259,
      "육": 5260,
      "으": 5261,
      "은": 5262,
      "을": 5263,
      "의": 5264,
      "이": 5265,
      "인": 5266,
      "일": 5267,
      "입": 5268,
      "잇": 5269,
      "있": 5270,
      "자": 5271,
      "작": 5272,
      "장": 5273,
      "재": 5274,
      "적": 5275,
      "전": 5276,
      "정": 5277,
      "제": 5278,
      "젯": 5279,
      "족": 5280,
      "종": 5281,
      "좋": 5282,
      "주": 5283,
      "준": 5284,
      "중": 5285,
      "즉": 5286,
      "즐": 5287,
      "지": 5288,
      "직": 5289,
      "진": 5290,
      "질": 5291,
      "집": 5292,
      "징": 5293,
      "째": 5294,
      "쨍": 5295,
      "차": 5296,
      "책": 5297,
      "챨": 5298,
      "처": 5299,
      "천": 5300,
      "철": 5301,
      "첨": 5302,
      "청": 5303,
      "체": 5304,
      "첻": 5305,
      "쳤": 5306,
      "쵥": 5307,
      "추": 5308,
      "축": 5309,
      "출": 5310,
      "춡": 5311,
      "춥": 5312,
      "춨": 5313,
      "충": 5314,
      "춼": 5315,
      "치": 5316,
      "칤": 5317,
      "칫": 5318,
      "칬": 5319,
      "칭": 5320,
      "카": 5321,
      "컢": 5322,
      "컨": 5323,
      "켫": 5324,
      "켸": 5325,
      "콫": 5326,
      "콵": 5327,
      "쿠": 5328,
      "쿪": 5329,
      "크": 5330,
      "큰": 5331,
      "타": 5332,
      "택": 5333,
      "터": 5334,
      "텔": 5335,
      "토": 5336,
      "통": 5337,
      "투": 5338,
      "트": 5339,
      "팚": 5340,
      "폐": 5341,
      "표": 5342,
      "프": 5343,
      "픈": 5344,
      "피": 5345,
      "하": 5346,
      "한": 5347,
      "합": 5348,
      "항": 5349,
      "해": 5350,
      "햇": 5351,
      "했": 5352,
      "행": 5353,
      "헐": 5354,
      "현": 5355,
      "호": 5356,
      "화": 5357,
      "환": 5358,
      "활": 5359,
      "회": 5360,
      "획": 5361,
      "후": 5362,
      "": 5363,
      "": 5364,
      "": 5365,
      "": 5366,
      "": 5367,
      "": 5368,
      "": 5369,
      "": 5370,
      "": 5371,
      "": 5372,
      "": 5373,
      "": 5374,
      "": 5375,
      "": 5376,
      "": 5377,
      "": 5378,
      "": 5379,
      "": 5380,
      "": 5381,
      "": 5382,
      "": 5383,
      "": 5384,
      "": 5385,
      "": 5386,
      "": 5387,
      "": 5388,
      "": 5389,
      "": 5390,
      "": 5391,
      "": 5392,
      "": 5393,
      "": 5394,
      "": 5395,
      "": 5396,
      "": 5397,
      "": 5398,
      "": 5399,
      "": 5400,
      "": 5401,
      "": 5402,
      "": 5403,
      "": 5404,
      "": 5405,
      "": 5406,
      "": 5407,
      "": 5408,
      "": 5409,
      "": 5410,
      "": 5411,
      "": 5412,
      "": 5413,
      "": 5414,
      "": 5415,
      "": 5416,
      "": 5417,
      "": 5418,
      "": 5419,
      "": 5420,
      "": 5421,
      "": 5422,
      "": 5423,
      "": 5424,
      "": 5425,
      "": 5426,
      "": 5427,
      "": 5428,
      "": 5429,
      "": 5430,
      "": 5431,
      "": 5432,
      "": 5433,
      "": 5434,
      "": 5435,
      "": 5436,
      "": 5437,
      "": 5438,
      "": 5439,
      "": 5440,
      "": 5441,
      "": 5442,
      "": 5443,
      "": 5444,
      "": 5445,
      "": 5446,
      "": 5447,
      "": 5448,
      "": 5449,
      "": 5450,
      "": 5451,
      "": 5452,
      "": 5453,
      "": 5454,
      "": 5455,
      "": 5456,
      "": 5457,
      "": 5458,
      "": 5459,
      "": 5460,
      "": 5461,
      "": 5462,
      "": 5463,
      "": 5464,
      "": 5465,
      "": 5466,
      "": 5467,
      "": 5468,
      "": 5469,
      "": 5470,
      "": 5471,
      "": 5472,
      "": 5473,
      "": 5474,
      "": 5475,
      "": 5476,
      "": 5477,
      "": 5478,
      "": 5479,
      "": 5480,
      "": 5481,
      "": 5482,
      "": 5483,
      "": 5484,
      "": 5485,
      "": 5486,
      "": 5487,
      "": 5488,
      "": 5489,
      "": 5490,
      "": 5491,
      "": 5492,
      "": 5493,
      "": 5494,
      "": 5495,
      "": 5496,
      "": 5497,
      "": 5498,
      "": 5499,
      "": 5500,
      "": 5501,
      "": 5502,
      "": 5503,
      "": 5504,
      "": 5505,
      "": 5506,
      "": 5507,
      "": 5508,
      "": 5509,
      "": 5510,
      "": 5511,
      "": 5512,
      "": 5513,
      "": 5514,
      "": 5515,
      "": 5516,
      "": 5517,
      "": 5518,
      "": 5519,
      "": 5520,
      "": 5521,
      "": 5522,
      "": 5523,
      "": 5524,
      "": 5525,
      "": 5526,
      "": 5527,
      "": 5528,
      "": 5529,
      "": 5530,
      "": 5531,
      "": 5532,
      "": 5533,
      "": 5534,
      "": 5535,
      "": 5536,
      "": 5537,
      "": 5538,
      "": 5539,
      "": 5540,
      "": 5541,
      "": 5542,
      "": 5543,
      "": 5544,
      "": 5545,
      "": 5546,
      "": 5547,
      "": 5548,
      "": 5549,
      "": 5550,
      "": 5551,
      "": 5552,
      "": 5553,
      "": 5554,
      "": 5555,
      "": 5556,
      "": 5557,
      "": 5558,
      "": 5559,
      "": 5560,
      "": 5561,
      "": 5562,
      "": 5563,
      "": 5564,
      "": 5565,
      "": 5566,
      "": 5567,
      "": 5568,
      "": 5569,
      "": 5570,
      "": 5571,
      "": 5572,
      "": 5573,
      "": 5574,
      "": 5575,
      "": 5576,
      "": 5577,
      "": 5578,
      "": 5579,
      "": 5580,
      "": 5581,
      "": 5582,
      "": 5583,
      "": 5584,
      "": 5585,
      "": 5586,
      "": 5587,
      "": 5588,
      "": 5589,
      "": 5590,
      "": 5591,
      "": 5592,
      "": 5593,
      "": 5594,
      "": 5595,
      "": 5596,
      "": 5597,
      "": 5598,
      "": 5599,
      "": 5600,
      "": 5601,
      "": 5602,
      "": 5603,
      "": 5604,
      "": 5605,
      "": 5606,
      "": 5607,
      "": 5608,
      "": 5609,
      "": 5610,
      "": 5611,
      "": 5612,
      "": 5613,
      "": 5614,
      "": 5615,
      "": 5616,
      "": 5617,
      "": 5618,
      "": 5619,
      "": 5620,
      "": 5621,
      "": 5622,
      "": 5623,
      "": 5624,
      "": 5625,
      "": 5626,
      "": 5627,
      "": 5628,
      "": 5629,
      "": 5630,
      "": 5631,
      "": 5632,
      "": 5633,
      "": 5634,
      "": 5635,
      "": 5636,
      "": 5637,
      "": 5638,
      "": 5639,
      "": 5640,
      "": 5641,
      "": 5642,
      "": 5643,
      "": 5644,
      "": 5645,
      "": 5646,
      "": 5647,
      "": 5648,
      "": 5649,
      "": 5650,
      "": 5651,
      "": 5652,
      "": 5653,
      "": 5654,
      "": 5655,
      "": 5656,
      "": 5657,
      "": 5658,
      "": 5659,
      "": 5660,
      "": 5661,
      "": 5662,
      "": 5663,
      "": 5664,
      "": 5665,
      "": 5666,
      "": 5667,
      "": 5668,
      "": 5669,
      "": 5670,
      "": 5671,
      "": 5672,
      "": 5673,
      "": 5674,
      "": 5675,
      "": 5676,
      "": 5677,
      "": 5678,
      "": 5679,
      "螺": 5680,
      "裸": 5681,
      "邏": 5682,
      "樂": 5683,
      "洛": 5684,
      "珞": 5685,
      "落": 5686,
      "爛": 5687,
      "藍": 5688,
      "襤": 5689,
      "拉": 5690,
      "臘": 5691,
      "蠟": 5692,
      "廊": 5693,
      "朗": 5694,
      "浪": 5695,
      "擄": 5696,
      "盧": 5697,
      "路": 5698,
      "祿": 5699,
      "弄": 5700,
      "磊": 5701,
      "賂": 5702,
      "雷": 5703,
      "凜": 5704,
      "凌": 5705,
      "綾": 5706,
      "菱": 5707,
      "陵": 5708,
      "拏": 5709,
      "樂": 5710,
      "北": 5711,
      "類": 5712,
      "淪": 5713,
      "易": 5714,
      "ﬁ": 5715,
      "ﰘ": 5716,
      "ﱾ": 5717,
      "ﳤ": 5718,
      "ﶯ": 5719,
      "﷬": 5720,
      "ﷺ": 5721,
      "︎": 5722,
      "️": 5723,
      "︿": 5724,
      "﹏": 5725,
      "﹫": 5726,
      "﻿": 5727,
      "！": 5728,
      "＆": 5729,
      "（": 5730,
      "）": 5731,
      "＋": 5732,
      "，": 5733,
      "－": 5734,
      "．": 5735,
      "／": 5736,
      "０": 5737,
      "１": 5738,
      "２": 5739,
      "３": 5740,
      "４": 5741,
      "５": 5742,
      "６": 5743,
      "７": 5744,
      "９": 5745,
      "：": 5746,
      "；": 5747,
      "＜": 5748,
      "＞": 5749,
      "？": 5750,
      "Ａ": 5751,
      "Ｂ": 5752,
      "Ｃ": 5753,
      "Ｄ": 5754,
      "Ｅ": 5755,
      "Ｆ": 5756,
      "Ｈ": 5757,
      "Ｉ": 5758,
      "Ｋ": 5759,
      "Ｌ": 5760,
      "Ｍ": 5761,
      "Ｎ": 5762,
      "Ｏ": 5763,
      "Ｐ": 5764,
      "Ｒ": 5765,
      "Ｓ": 5766,
      "Ｔ": 5767,
      "Ｕ": 5768,
      "Ｖ": 5769,
      "＼": 5770,
      "＿": 5771,
      "ｇ": 5772,
      "ｉ": 5773,
      "ｍ": 5774,
      "ｎ": 5775,
      "ｏ": 5776,
      "ｓ": 5777,
      "ｕ": 5778,
      "ｗ": 5779,
      "～": 5780,
      "｡": 5781,
      "･": 5782,
      "ｯ": 5783,
      "ｸ": 5784,
      "ﾀ": 5785,
      "ﾎ": 5786,
      "ﾟ": 5787,
      "ﾠ": 5788,
      "ﾥ": 5789,
      "ﾩ": 5790,
      "ﾭ": 5791,
      "ﾵ": 5792,
      "￣": 5793,
      "￪": 5794,
      "￭": 5795,
      "￰": 5796,
      "￴": 5797,
      "￼": 5798,
      "�": 5799,
      "𝐂": 5800,
      "𝐊": 5801,
      "𝐍": 5802,
      "𝐒": 5803,
      "𝐚": 5804,
      "𝐝": 5805,
      "𝐞": 5806,
      "𝐡": 5807,
      "𝐢": 5808,
      "𝐥": 5809,
      "𝐦": 5810,
      "𝐧": 5811,
      "𝐩": 5812,
      "𝐫": 5813,
      "𝐬": 5814,
      "𝐭": 5815,
      "𝐮": 5816,
      "𝐲": 5817,
      "𝓕": 5818,
      "𝓙": 5819,
      "𝓚": 5820,
      "𝓪": 5821,
      "𝓮": 5822,
      "𝓱": 5823,
      "𝓲": 5824,
      "𝓴": 5825,
      "𝓶": 5826,
      "𝓷": 5827,
      "𝓹": 5828,
      "𝓼": 5829,
      "𝓾": 5830,
      "𝓿": 5831,
      "𝕒": 5832,
      "𝕙": 5833,
      "𝕟": 5834,
      "𝕠": 5835,
      "𝕤": 5836,
      "𝕽": 5837,
      "𝖍": 5838,
      "𝖎": 5839,
      "𝖔": 5840,
      "𝖙": 5841,
      "𝙁": 5842,
      "𝙆": 5843,
      "𝙖": 5844,
      "𝙚": 5845,
      "𝙜": 5846,
      "𝙝": 5847,
      "𝙞": 5848,
      "𝙣": 5849,
      "𝙤": 5850,
      "𝙧": 5851,
      "𝙫": 5852,
      "🅰": 5853,
      "🅳": 5854,
      "🅴": 5855,
      "🅵": 5856,
      "🅸": 5857,
      "🅺": 5858,
      "🅽": 5859,
      "🆁": 5860,
      "🆂": 5861,
      "🆈": 5862,
      "🆓": 5863,
      "🆕": 5864,
      "🆚": 5865,
      "🇦": 5866,
      "🇧": 5867,
      "🇨": 5868,
      "🇩": 5869,
      "🇪": 5870,
      "🇫": 5871,
      "🇬": 5872,
      "🇭": 5873,
      "🇮": 5874,
      "🇯": 5875,
      "🇰": 5876,
      "🇱": 5877,
      "🇲": 5878,
      "🇳": 5879,
      "🇴": 5880,
      "🇵": 5881,
      "🇷": 5882,
      "🇸": 5883,
      "🇹": 5884,
      "🇺": 5885,
      "🇻": 5886,
      "🇼": 5887,
      "🇽": 5888,
      "🇾": 5889,
      "🇿": 5890,
      "🌀": 5891,
      "🌄": 5892,
      "🌅": 5893,
      "🌈": 5894,
      "🌊": 5895,
      "🌌": 5896,
      "🌍": 5897,
      "🌎": 5898,
      "🌏": 5899,
      "🌐": 5900,
      "🌓": 5901,
      "🌘": 5902,
      "🌙": 5903,
      "🌚": 5904,
      "🌛": 5905,
      "🌞": 5906,
      "🌟": 5907,
      "🌠": 5908,
      "🌧": 5909,
      "🌨": 5910,
      "🌩": 5911,
      "🌪": 5912,
      "🌮": 5913,
      "🌯": 5914,
      "🌰": 5915,
      "🌱": 5916,
      "🌲": 5917,
      "🌳": 5918,
      "🌴": 5919,
      "🌵": 5920,
      "🌷": 5921,
      "🌸": 5922,
      "🌹": 5923,
      "🌺": 5924,
      "🌻": 5925,
      "🌼": 5926,
      "🌾": 5927,
      "🌿": 5928,
      "🍀": 5929,
      "🍁": 5930,
      "🍂": 5931,
      "🍃": 5932,
      "🍄": 5933,
      "🍅": 5934,
      "🍉": 5935,
      "🍊": 5936,
      "🍋": 5937,
      "🍌": 5938,
      "🍎": 5939,
      "🍏": 5940,
      "🍐": 5941,
      "🍒": 5942,
      "🍓": 5943,
      "🍔": 5944,
      "🍕": 5945,
      "🍖": 5946,
      "🍗": 5947,
      "🍚": 5948,
      "🍛": 5949,
      "🍜": 5950,
      "🍝": 5951,
      "🍟": 5952,
      "🍡": 5953,
      "🍣": 5954,
      "🍦": 5955,
      "🍨": 5956,
      "🍩": 5957,
      "🍪": 5958,
      "🍫": 5959,
      "🍬": 5960,
      "🍭": 5961,
      "🍯": 5962,
      "🍰": 5963,
      "🍲": 5964,
      "🍵": 5965,
      "🍷": 5966,
      "🍸": 5967,
      "🍹": 5968,
      "🍺": 5969,
      "🍻": 5970,
      "🍼": 5971,
      "🍾": 5972,
      "🍿": 5973,
      "🎀": 5974,
      "🎁": 5975,
      "🎂": 5976,
      "🎃": 5977,
      "🎄": 5978,
      "🎅": 5979,
      "🎆": 5980,
      "🎇": 5981,
      "🎈": 5982,
      "🎉": 5983,
      "🎊": 5984,
      "🎖": 5985,
      "🎙": 5986,
      "🎞": 5987,
      "🎣": 5988,
      "🎤": 5989,
      "🎥": 5990,
      "🎧": 5991,
      "🎨": 5992,
      "🎩": 5993,
      "🎪": 5994,
      "🎬": 5995,
      "🎭": 5996,
      "🎮": 5997,
      "🎯": 5998,
      "🎵": 5999,
      "🎶": 6000,
      "🎻": 6001,
      "🎼": 6002,
      "🎽": 6003,
      "🎾": 6004,
      "🏀": 6005,
      "🏁": 6006,
      "🏃": 6007,
      "🏄": 6008,
      "🏆": 6009,
      "🏇": 6010,
      "🏉": 6011,
      "🏊": 6012,
      "🏋": 6013,
      "🏍": 6014,
      "🏎": 6015,
      "🏏": 6016,
      "🏑": 6017,
      "🏒": 6018,
      "🏔": 6019,
      "🏕": 6020,
      "🏖": 6021,
      "🏝": 6022,
      "🏞": 6023,
      "🏠": 6024,
      "🏡": 6025,
      "🏢": 6026,
      "🏥": 6027,
      "🏰": 6028,
      "🏳": 6029,
      "🏴": 6030,
      "🏸": 6031,
      "🏹": 6032,
      "🏻": 6033,
      "🏼": 6034,
      "🏽": 6035,
      "🏾": 6036,
      "🏿": 6037,
      "🐁": 6038,
      "🐂": 6039,
      "🐃": 6040,
      "🐄": 6041,
      "🐅": 6042,
      "🐆": 6043,
      "🐈": 6044,
      "🐉": 6045,
      "🐍": 6046,
      "🐏": 6047,
      "🐐": 6048,
      "🐒": 6049,
      "🐔": 6050,
      "🐕": 6051,
      "🐗": 6052,
      "🐘": 6053,
      "🐚": 6054,
      "🐞": 6055,
      "🐠": 6056,
      "🐣": 6057,
      "🐤": 6058,
      "🐦": 6059,
      "🐧": 6060,
      "🐫": 6061,
      "🐬": 6062,
      "🐮": 6063,
      "🐯": 6064,
      "🐱": 6065,
      "🐳": 6066,
      "🐶": 6067,
      "🐷": 6068,
      "🐹": 6069,
      "🐾": 6070,
      "👀": 6071,
      "👁": 6072,
      "👅": 6073,
      "👆": 6074,
      "👇": 6075,
      "👈": 6076,
      "👉": 6077,
      "👊": 6078,
      "👋": 6079,
      "👌": 6080,
      "👍": 6081,
      "👎": 6082,
      "👏": 6083,
      "👑": 6084,
      "👓": 6085,
      "👕": 6086,
      "👗": 6087,
      "👙": 6088,
      "👚": 6089,
      "👡": 6090,
      "👣": 6091,
      "👤": 6092,
      "👦": 6093,
      "👧": 6094,
      "👨": 6095,
      "👩": 6096,
      "👪": 6097,
      "👫": 6098,
      "👬": 6099,
      "👭": 6100,
      "👮": 6101,
      "👯": 6102,
      "👰": 6103,
      "👲": 6104,
      "👳": 6105,
      "👴": 6106,
      "👵": 6107,
      "👶": 6108,
      "👸": 6109,
      "👹": 6110,
      "👺": 6111,
      "👻": 6112,
      "👽": 6113,
      "👿": 6114,
      "💀": 6115,
      "💁": 6116,
      "💃": 6117,
      "💄": 6118,
      "💅": 6119,
      "💆": 6120,
      "💇": 6121,
      "💈": 6122,
      "💉": 6123,
      "💋": 6124,
      "💌": 6125,
      "💍": 6126,
      "💎": 6127,
      "💏": 6128,
      "💐": 6129,
      "💑": 6130,
      "💓": 6131,
      "💔": 6132,
      "💕": 6133,
      "💖": 6134,
      "💗": 6135,
      "💘": 6136,
      "💙": 6137,
      "💚": 6138,
      "💛": 6139,
      "💜": 6140,
      "💝": 6141,
      "💞": 6142,
      "💟": 6143,
      "💠": 6144,
      "💡": 6145,
      "💢": 6146,
      "💣": 6147,
      "💤": 6148,
      "💥": 6149,
      "💦": 6150,
      "💧": 6151,
      "💩": 6152,
      "💪": 6153,
      "💫": 6154,
      "💬": 6155,
      "💭": 6156,
      "💯": 6157,
      "💰": 6158,
      "💲": 6159,
      "💵": 6160,
      "💶": 6161,
      "💸": 6162,
      "💺": 6163,
      "💻": 6164,
      "💼": 6165,
      "📂": 6166,
      "📃": 6167,
      "📆": 6168,
      "📈": 6169,
      "📌": 6170,
      "📍": 6171,
      "📎": 6172,
      "📑": 6173,
      "📒": 6174,
      "📓": 6175,
      "📖": 6176,
      "📗": 6177,
      "📘": 6178,
      "📙": 6179,
      "📚": 6180,
      "📝": 6181,
      "📞": 6182,
      "📟": 6183,
      "📡": 6184,
      "📢": 6185,
      "📣": 6186,
      "📧": 6187,
      "📯": 6188,
      "📰": 6189,
      "📱": 6190,
      "📲": 6191,
      "📳": 6192,
      "📴": 6193,
      "📷": 6194,
      "📸": 6195,
      "📹": 6196,
      "📺": 6197,
      "📻": 6198,
      "📽": 6199,
      "📿": 6200,
      "🔁": 6201,
      "🔄": 6202,
      "🔅": 6203,
      "🔇": 6204,
      "🔊": 6205,
      "🔏": 6206,
      "🔐": 6207,
      "🔑": 6208,
      "🔔": 6209,
      "🔗": 6210,
      "🔘": 6211,
      "🔙": 6212,
      "🔜": 6213,
      "🔝": 6214,
      "🔟": 6215,
      "🔥": 6216,
      "🔨": 6217,
      "🔪": 6218,
      "🔫": 6219,
      "🔮": 6220,
      "🔯": 6221,
      "🔰": 6222,
      "🔱": 6223,
      "🔳": 6224,
      "🔴": 6225,
      "🔵": 6226,
      "🔶": 6227,
      "🔷": 6228,
      "🔸": 6229,
      "🔹": 6230,
      "🔺": 6231,
      "🔻": 6232,
      "🔽": 6233,
      "🕉": 6234,
      "🕊": 6235,
      "🕘": 6236,
      "🕯": 6237,
      "🕴": 6238,
      "🕵": 6239,
      "🕶": 6240,
      "🕷": 6241,
      "🕺": 6242,
      "🖋": 6243,
      "🖍": 6244,
      "🖐": 6245,
      "🖕": 6246,
      "🖤": 6247,
      "🗝": 6248,
      "🗣": 6249,
      "🗾": 6250,
      "😀": 6251,
      "😁": 6252,
      "😂": 6253,
      "😃": 6254,
      "😄": 6255,
      "😅": 6256,
      "😆": 6257,
      "😇": 6258,
      "😈": 6259,
      "😉": 6260,
      "😊": 6261,
      "😋": 6262,
      "😌": 6263,
      "😍": 6264,
      "😎": 6265,
      "😏": 6266,
      "😐": 6267,
      "😑": 6268,
      "😒": 6269,
      "😓": 6270,
      "😔": 6271,
      "😕": 6272,
      "😖": 6273,
      "😗": 6274,
      "😘": 6275,
      "😚": 6276,
      "😛": 6277,
      "😜": 6278,
      "😝": 6279,
      "😞": 6280,
      "😟": 6281,
      "😠": 6282,
      "😡": 6283,
      "😢": 6284,
      "😣": 6285,
      "😥": 6286,
      "😦": 6287,
      "😨": 6288,
      "😩": 6289,
      "😪": 6290,
      "😫": 6291,
      "😬": 6292,
      "😭": 6293,
      "😮": 6294,
      "😯": 6295,
      "😰": 6296,
      "😱": 6297,
      "😲": 6298,
      "😳": 6299,
      "😴": 6300,
      "😶": 6301,
      "😷": 6302,
      "😸": 6303,
      "😹": 6304,
      "😻": 6305,
      "🙀": 6306,
      "🙁": 6307,
      "🙂": 6308,
      "🙃": 6309,
      "🙄": 6310,
      "🙅": 6311,
      "🙇": 6312,
      "🙈": 6313,
      "🙉": 6314,
      "🙊": 6315,
      "🙋": 6316,
      "🙌": 6317,
      "🙎": 6318,
      "🙏": 6319,
      "🚀": 6320,
      "🚁": 6321,
      "🚂": 6322,
      "🚃": 6323,
      "🚌": 6324,
      "🚕": 6325,
      "🚖": 6326,
      "🚗": 6327,
      "🚘": 6328,
      "🚚": 6329,
      "🚣": 6330,
      "🚤": 6331,
      "🚨": 6332,
      "🚩": 6333,
      "🚲": 6334,
      "🚴": 6335,
      "🚶": 6336,
      "🚼": 6337,
      "🛌": 6338,
      "🛍": 6339,
      "🛑": 6340,
      "🛒": 6341,
      "🛠": 6342,
      "🛫": 6343,
      "🛳": 6344,
      "🛶": 6345,
      "🟣": 6346,
      "🤍": 6347,
      "🤓": 6348,
      "🤔": 6349,
      "🤖": 6350,
      "🤗": 6351,
      "🤘": 6352,
      "🤙": 6353,
      "🤚": 6354,
      "🤛": 6355,
      "🤜": 6356,
      "🤝": 6357,
      "🤞": 6358,
      "🤟": 6359,
      "🤠": 6360,
      "🤡": 6361,
      "🤣": 6362,
      "🤤": 6363,
      "🤦": 6364,
      "🤧": 6365,
      "🤨": 6366,
      "🤩": 6367,
      "🤪": 6368,
      "🤫": 6369,
      "🤭": 6370,
      "🤮": 6371,
      "🤯": 6372,
      "🤰": 6373,
      "🤱": 6374,
      "🤲": 6375,
      "🤳": 6376,
      "🤵": 6377,
      "🤷": 6378,
      "🤸": 6379,
      "🥀": 6380,
      "🥁": 6381,
      "🥂": 6382,
      "🥃": 6383,
      "🥅": 6384,
      "🥇": 6385,
      "🥈": 6386,
      "🥉": 6387,
      "🥊": 6388,
      "🥏": 6389,
      "🥒": 6390,
      "🥗": 6391,
      "🥘": 6392,
      "🥙": 6393,
      "🥚": 6394,
      "🥜": 6395,
      "🥞": 6396,
      "🥣": 6397,
      "🥤": 6398,
      "🥧": 6399,
      "🥮": 6400,
      "🥰": 6401,
      "🥳": 6402,
      "🥴": 6403,
      "🥺": 6404,
      "🦀": 6405,
      "🦁": 6406,
      "🦄": 6407,
      "🦅": 6408,
      "🦉": 6409,
      "🦊": 6410,
      "🦋": 6411,
      "🦌": 6412,
      "🦍": 6413,
      "🦏": 6414,
      "🦓": 6415,
      "🦢": 6416,
      "🦩": 6417,
      "🦲": 6418,
      "🧁": 6419,
      "🧂": 6420,
      "🧐": 6421,
      "🧔": 6422,
      "🧘": 6423,
      "🧚": 6424,
      "🧜": 6425,
      "🧟": 6426,
      "🧠": 6427,
      "🧡": 6428,
      "🧢": 6429,
      "🧨": 6430,
      "🧬": 6431,
      "🧮": 6432,
      "🧿": 6433,
      "🩱": 6434,
      "🪔": 6435,
      "𨏽": 6436,
      "𰸴": 6437,
      "𱦵": 6438,
      "𱦶": 6439,
      "𲻻": 6440,
      "𴲴": 6441,
      "𸣴": 6442,
      "𹥴": 6443,
      "𼴴": 6444,
      "𿪲": 6445,
      "𿪹": 6446,
      "𿪽": 6447,
      "񡪡": 6448,
      "񡾶": 6449,
      "񱔿": 6450,
      "񱨡": 6451,
      "񱨸": 6452,
      "񱨺": 6453,
      "񱨻": 6454,
      "񳬼": 6455,
      "񴶽": 6456,
      "񵽲": 6457,
      "񹷼": 6458,
      "񽥾": 6459,
      "񽱹": 6460,
      "񾡴": 6461,
      "񾭱": 6462,
      "񿪽": 6463,
      "򲻿": 6464,
      "򻧲": 6465,
      "򻧴": 6466,
      "򼸸": 6467,
      "򿪴": 6468,
      "󠁢": 6469,
      "󠁥": 6470,
      "󠁧": 6471,
      "󠁮": 6472,
      "󠁿": 6473,
      "󵶿": 6474,
      "󶫷": 6475,
      "󷽷": 6476,
      "󸣴": 6477,
      "󸻴": 6478,
      "󹫿": 6479,
      "󹬴": 6480,
      "󹷲": 6481,
      "󽫾": 6482,
      "󿨰": 6483,
      "󿪴": 6484,
      "󿪵": 6485,
      "󿪽": 6486,
      "􀂩": 6487,
      "􀂫": 6488,
      "􀂰": 6489,
      "􀂴": 6490,
      "􀂽": 6491,
      "􀃂": 6492,
      "􀃌": 6493,
      "􀃎": 6494,
      "􀈋": 6495,
      "􀉕": 6496,
      "􁮓": 6497,
      "या": 6498,
      "्या": 6499,
      "ार": 6500,
      "्र": 6501,
      "ला": 6502,
      "ना": 6503,
      "र्": 6504,
      "का": 6505,
      "हे": 6506,
      "ात": 6507,
      "ले": 6508,
      "वा": 6509,
      "्य": 6510,
      "सा": 6511,
      "च्या": 6512,
      "आहे": 6513,
      "स्": 6514,
      "कर": 6515,
      "ही": 6516,
      "ती": 6517,
      "ने": 6518,
      "मा": 6519,
      "क्": 6520,
      "प्र": 6521,
      "वि": 6522,
      "त्या": 6523,
      "ून": 6524,
      "ली": 6525,
      "ता": 6526,
      "चा": 6527,
      "ल्या": 6528,
      "रा": 6529,
      "के": 6530,
      "पा": 6531,
      "चे": 6532,
      "ण्या": 6533,
      "ची": 6534,
      "ते": 6535,
      "अस": 6536,
      "हो": 6537,
      "हा": 6538,
      "नी": 6539,
      "ंत": 6540,
      "वर": 6541,
      "नि": 6542,
      "मु": 6543,
      "कार": 6544,
      "आण": 6545,
      "क्ष": 6546,
      "सं": 6547,
      "आणि": 6548,
      "ां": 6549,
      "दे": 6550,
      "वे": 6551,
      "यां": 6552,
      "त्": 6553,
      "दि": 6554,
      "हि": 6555,
      "ंग": 6556,
      "ठी": 6557,
      "ील": 6558,
      "मध": 6559,
      "भा": 6560,
      "जा": 6561,
      "दा": 6562,
      "बा": 6563,
      "तर": 6564,
      "म्": 6565,
      "ित": 6566,
      "्ये": 6567,
      "सु": 6568,
      "ये": 6569,
      "झा": 6570,
      "णा": 6571,
      "साठी": 6572,
      "मि": 6573,
      "पर": 6574,
      "ल्": 6575,
      "ंद": 6576,
      "णार": 6577,
      "िक": 6578,
      "से": 6579,
      "ळे": 6580,
      "्ट": 6581,
      "णी": 6582,
      "की": 6583,
      "गा": 6584,
      "णे": 6585,
      "शा": 6586,
      "त्यां": 6587,
      "नाही": 6588,
      "पु": 6589,
      "मध्ये": 6590,
      "वी": 6591,
      "मी": 6592,
      "एक": 6593,
      "तो": 6594,
      "को": 6595,
      "शि": 6596,
      "ण्यात": 6597,
      "लि": 6598,
      "ति": 6599,
      "रो": 6600,
      "ंड": 6601,
      "मो": 6602,
      "न्": 6603,
      "री": 6604,
      "शी": 6605,
      "स्थ": 6606,
      "म्ह": 6607,
      "व्": 6608,
      "द्": 6609,
      "ष्ट": 6610,
      "त्र": 6611,
      "वार": 6612,
      "घे": 6613,
      "आहेत": 6614,
      "डे": 6615,
      "्यां": 6616,
      "रे": 6617,
      "पू": 6618,
      "दी": 6619,
      "जी": 6620,
      "रु": 6621,
      "ळी": 6622,
      "ंब": 6623,
      "मुळे": 6624,
      "कि": 6625,
      "जे": 6626,
      "ळा": 6627,
      "क्र": 6628,
      "टी": 6629,
      "आप": 6630,
      "कां": 6631,
      "मे": 6632,
      "धी": 6633,
      "वर्": 6634,
      "तील": 6635,
      "सर्": 6636,
      "पो": 6637,
      "लेल्या": 6638,
      "गे": 6639,
      "मार": 6640,
      "यांनी": 6641,
      "सर": 6642,
      "खा": 6643,
      "धा": 6644,
      "असे": 6645,
      "लो": 6646,
      "्री": 6647,
      "डी": 6648,
      "सो": 6649,
      "म्हण": 6650,
      "शे": 6651,
      "श्": 6652,
      "दार": 6653,
      "ंतर": 6654,
      "तात": 6655,
      "राज": 6656,
      "टा": 6657,
      "चार": 6658,
      "होते": 6659,
      "दु": 6660,
      "लं": 6661,
      "कु": 6662,
      "मात": 6663,
      "द्या": 6664,
      "सि": 6665,
      "यो": 6666,
      "ग्र": 6667,
      "काही": 6668,
      "मान": 6669,
      "अध": 6670,
      "व्य": 6671,
      "तु": 6672,
      "गर": 6673,
      "जात": 6674,
      "नंतर": 6675,
      "शक": 6676,
      "केली": 6677,
      "गु": 6678,
      "ण्यासाठी": 6679,
      "केले": 6680,
      "रू": 6681,
      "जि": 6682,
      "डा": 6683,
      "पर्": 6684,
      "..": 6685,
      "पण": 6686,
      "ारा": 6687,
      "क्त": 6688,
      "्यात": 6689,
      "पास": 6690,
      "दो": 6691,
      "पूर्": 6692,
      "स्ट": 6693,
      "पे": 6694,
      "असल्या": 6695,
      "उप": 6696,
      "लाग": 6697,
      "वड": 6698,
      "स्त": 6699,
      "करण्यात": 6700,
      "सर्व": 6701,
      "ठा": 6702,
      "गो": 6703,
      "नु": 6704,
      "भार": 6705,
      "सी": 6706,
      "ातील": 6707,
      "परि": 6708,
      "स्था": 6709,
      "वर्ष": 6710,
      "निर्": 6711,
      "कर्": 6712,
      "दर": 6713,
      "र्थ": 6714,
      "यु": 6715,
      "देश": 6716,
      "भाग": 6717,
      "सह": 6718,
      "सार": 6719,
      "करा": 6720,
      "घा": 6721,
      "आले": 6722,
      "यांच्या": 6723,
      "महा": 6724,
      "मह": 6725,
      "थे": 6726,
      "कडे": 6727,
      "ऱ्या": 6728,
      "रि": 6729,
      "काय": 6730,
      "पी": 6731,
      "केला": 6732,
      "प्": 6733,
      "स्व": 6734,
      "ठे": 6735,
      "सांग": 6736,
      "काम": 6737,
      "घेत": 6738,
      "वारी": 6739,
      "कड": 6740,
      "चं": 6741,
      "होती": 6742,
      "क्षा": 6743,
      "मुख": 6744,
      "व्या": 6745,
      "खे": 6746,
      "ताना": 6747,
      "टे": 6748,
      "त्यामुळे": 6749,
      "यंत": 6750,
      "मंत": 6751,
      "व्हा": 6752,
      "झाले": 6753,
      "नो": 6754,
      "उत्": 6755,
      "ण्याची": 6756,
      "जार": 6757,
      "बो": 6758,
      "होता": 6759,
      "चित": 6760,
      "रात": 6761,
      "द्ध": 6762,
      "ंद्र": 6763,
      "दिव": 6764,
      "मात्र": 6765,
      "पासून": 6766,
      "बाब": 6767,
      "माण": 6768,
      "सरकार": 6769,
      "न्या": 6770,
      "होत": 6771,
      "ऊन": 6772,
      "ंना": 6773,
      "वळ": 6774,
      "दर्": 6775,
      "असून": 6776,
      "िका": 6777,
      "आता": 6778,
      "असा": 6779,
      "मिळ": 6780,
      "ंनी": 6781,
      "वाढ": 6782,
      "आपल्या": 6783,
      "अने": 6784,
      "गी": 6785,
      "ष्": 6786,
      "करून": 6787,
      "सुरू": 6788,
      "नस": 6789,
      "म्हणून": 6790,
      "प्रति": 6791,
      "त्य": 6792,
      "चि": 6793,
      "पड": 6794,
      "सम": 6795,
      "त्यांनी": 6796,
      "घट": 6797,
      "मुंब": 6798,
      "ष्ट्र": 6799,
      "महि": 6800,
      "जन": 6801,
      "ब्": 6802,
      "शन": 6803,
      "त्यांच्या": 6804,
      "तरी": 6805,
      "मुंबई": 6806,
      "ग्": 6807,
      "डि": 6808,
      "पार": 6809,
      "कार्य": 6810,
      "ईल": 6811,
      "च्": 6812,
      "अनेक": 6813,
      "पि": 6814,
      "आली": 6815,
      "ंध": 6816,
      "एका": 6817,
      "पोलि": 6818,
      "चाल": 6819,
      "भर": 6820,
      "मार्": 6821,
      "अशी": 6822,
      "माहि": 6823,
      "तसे": 6824,
      "भू": 6825,
      "निवड": 6826,
      "किं": 6827,
      "वेळी": 6828,
      "झाली": 6829,
      "व्ह": 6830,
      "दोन": 6831,
      "धार": 6832,
      "प्रा": 6833,
      "जो": 6834,
      "मत": 6835,
      "भे": 6836,
      "ज्": 6837,
      "लोक": 6838,
      "माहिती": 6839,
      "जिल्": 6840,
      "पर्यंत": 6841,
      "विद्या": 6842,
      "टर": 6843,
      "ण्याचा": 6844,
      "आज": 6845,
      "वाह": 6846,
      "वात": 6847,
      "ेस": 6848,
      "यात": 6849,
      "माग": 6850,
      "कडून": 6851,
      "भि": 6852,
      "दल": 6853,
      "ंच्या": 6854,
      "यला": 6855,
      "पूर्ण": 6856,
      "सू": 6857,
      "झाला": 6858,
      "पूर": 6859,
      "भाज": 6860,
      "पट": 6861,
      "लक्ष": 6862,
      "समा": 6863,
      "कृ": 6864,
      "अशा": 6865,
      "आला": 6866,
      "त्यांना": 6867,
      "्रा": 6868,
      "आपण": 6869,
      "णाऱ्या": 6870,
      "दाख": 6871,
      "ंचा": 6872,
      "वाट": 6873,
      "काळ": 6874,
      "बी": 6875,
      "पुढ": 6876,
      "फे": 6877,
      "ऱ्यां": 6878,
      "वून": 6879,
      "किंवा": 6880,
      "कं": 6881,
      "शो": 6882,
      "राह": 6883,
      "२०": 6884,
      "तसेच": 6885,
      "बर": 6886,
      "ूक": 6887,
      "ंची": 6888,
      "ल्याने": 6889,
      "क्षण": 6890,
      "करी": 6891,
      "नं": 6892,
      "बि": 6893,
      "फो": 6894,
      "विचार": 6895,
      "हात": 6896,
      "आम": 6897,
      "बे": 6898,
      "हर": 6899,
      "चित्र": 6900,
      "फा": 6901,
      "दिली": 6902,
      "ांना": 6903,
      "कोण": 6904,
      "नगर": 6905,
      "रुप": 6906,
      "मंत्री": 6907,
      "कॉ": 6908,
      "म्ही": 6909,
      "क्षे": 6910,
      "हजार": 6911,
      "टो": 6912,
      "ांनी": 6913,
      "न्हा": 6914,
      "मुख्य": 6915,
      "म्हणजे": 6916,
      "विष": 6917,
      "घड": 6918,
      "वले": 6919,
      "काढ": 6920,
      "स्ता": 6921,
      "जय": 6922,
      "पै": 6923,
      "आरो": 6924,
      "गाव": 6925,
      "पत्र": 6926,
      "बु": 6927,
      "आय": 6928,
      "मू": 6929,
      "यांना": 6930,
      "महारा": 6931,
      "िकार": 6932,
      "मन": 6933,
      "मिळा": 6934,
      "होणार": 6935,
      "पालि": 6936,
      "ट्र": 6937,
      "बस": 6938,
      "सांगित": 6939,
      "डॉ": 6940,
      "व्यव": 6941,
      "निवडण": 6942,
      "मला": 6943,
      "वापर": 6944,
      "नात": 6945,
      "शिव": 6946,
      "विरो": 6947,
      "केल्या": 6948,
      "योज": 6949,
      "ध्या": 6950,
      "आव": 6951,
      "कांना": 6952,
      "प्रकार": 6953,
      "वास": 6954,
      "दिस": 6955,
      "बंद": 6956,
      "तया": 6957,
      "योग": 6958,
      "भाजप": 6959,
      "क्ती": 6960,
      "करत": 6961,
      "ज्ञ": 6962,
      "जु": 6963,
      "येथे": 6964,
      "वाद": 6965,
      "श्य": 6966,
      "झाल्या": 6967,
      "कमी": 6968,
      "त्याच्या": 6969,
      "ांच्या": 6970,
      "निधी": 6971,
      "साय": 6972,
      "येत": 6973,
      "्यक्ष": 6974,
      "ग्रा": 6975,
      "क्रि": 6976,
      "करण्यासाठी": 6977,
      "ण्याचे": 6978,
      "बाबत": 6979,
      "प्रत": 6980,
      "द्य": 6981,
      "पाणी": 6982,
      "ंट": 6983,
      "स्थि": 6984,
      "शास": 6985,
      "लाव": 6986,
      "चौ": 6987,
      "म्या": 6988,
      "विध": 6989,
      "तीन": 6990,
      "माझ": 6991,
      "काँ": 6992,
      "ंगा": 6993,
      "गत": 6994,
      "वृ": 6995,
      "राज्य": 6996,
      "म्हणा": 6997,
      "निक": 6998,
      "न्य": 6999,
      "20": 7000,
      "थील": 7001,
      "कल्": 7002,
      "स्वत": 7003,
      "वेग": 7004,
      "कारण": 7005,
      "दिले": 7006,
      "मधील": 7007,
      "लाख": 7008,
      "त्यात": 7009,
      "ग्रेस": 7010,
      "बंध": 7011,
      "निर्ण": 7012,
      "रस्": 7013,
      "ठर": 7014,
      "डो": 7015,
      "ूर": 7016,
      "करण": 7017,
      "असलेल्या": 7018,
      "सात": 7019,
      "यी": 7020,
      "काँग्रेस": 7021,
      "चर्": 7022,
      "मरा": 7023,
      "असल्याचे": 7024,
      "प्रश्": 7025,
      "देख": 7026,
      "शेत": 7027,
      "फि": 7028,
      "पहि": 7029,
      "पोलिसा": 7030,
      "बां": 7031,
      "हु": 7032,
      "अधिक": 7033,
      "वै": 7034,
      "अनु": 7035,
      "श्यक": 7036,
      "त्ता": 7037,
      "सुरु": 7038,
      "्यातील": 7039,
      "च्छ": 7040,
      "मिती": 7041,
      "नवी": 7042,
      "वाई": 7043,
      "स्त्र": 7044,
      "नाव": 7045,
      "येणार": 7046,
      "अभि": 7047,
      "स्थिती": 7048,
      "वेश": 7049,
      "मंड": 7050,
      "पाट": 7051,
      "यत्": 7052,
      "करणार": 7053,
      "एस": 7054,
      "मद": 7055,
      "त्वा": 7056,
      "पूर्वी": 7057,
      "शु": 7058,
      "स्प": 7059,
      "पात": 7060,
      "येथील": 7061,
      "ंक": 7062,
      "विद्यार्थ": 7063,
      "महाराष्ट्र": 7064,
      "वाय": 7065,
      "था": 7066,
      "घात": 7067,
      "लया": 7068,
      "लेले": 7069,
      "कंप": 7070,
      "प्रयत्": 7071,
      "ख्या": 7072,
      "आवश्यक": 7073,
      "गेल्या": 7074,
      "चांग": 7075,
      "वन": 7076,
      "असेल": 7077,
      "अप": 7078,
      "अर्थ": 7079,
      "सांगितले": 7080,
      "आर": 7081,
      "बोल": 7082,
      "ुन": 7083,
      "ांची": 7084,
      "राष्ट्र": 7085,
      "करणे": 7086,
      "खी": 7087,
      "ष्टी": 7088,
      "ंच": 7089,
      "त्त": 7090,
      "वरील": 7091,
      "गार": 7092,
      "ळ्या": 7093,
      "त्याला": 7094,
      "गि": 7095,
      "मोर": 7096,
      "विका": 7097,
      "म्यान": 7098,
      "भी": 7099,
      "पाठ": 7100,
      "ुकी": 7101,
      "मृ": 7102,
      "आठ": 7103,
      "--": 7104,
      "पणे": 7105,
      "नुसार": 7106,
      "देखील": 7107,
      "पेक्षा": 7108,
      "दरम्यान": 7109,
      "दिला": 7110,
      "वादी": 7111,
      "विरोध": 7112,
      "टि": 7113,
      "एम": 7114,
      "ठेव": 7115,
      "ठिका": 7116,
      "अर": 7117,
      "पक्ष": 7118,
      "मं": 7119,
      "ंबर": 7120,
      "तयार": 7121,
      "जिल्हा": 7122,
      "जवळ": 7123,
      "असं": 7124,
      "कीय": 7125,
      "अर्": 7126,
      "पाह": 7127,
      "अव": 7128,
      "शक्य": 7129,
      "यांची": 7130,
      "िकारी": 7131,
      "खो": 7132,
      "टक": 7133,
      "ंचे": 7134,
      "वरून": 7135,
      "विधा": 7136,
      "प्रयत्न": 7137,
      "प्रत्ये": 7138,
      "पाहि": 7139,
      "प्रे": 7140,
      "‍या": 7141,
      "घटना": 7142,
      "समोर": 7143,
      "न्स": 7144,
      "ंदा": 7145,
      "ण्यास": 7146,
      "विविध": 7147,
      "टक्": 7148,
      "ूप": 7149,
      "त्व": 7150,
      "लु": 7151,
      "कांनी": 7152,
      "मोठ": 7153,
      "निर्णय": 7154,
      "आम्ही": 7155,
      "कोटी": 7156,
      "असते": 7157,
      "शेष": 7158,
      "काळी": 7159,
      "घो": 7160,
      "्रे": 7161,
      "शिवसे": 7162,
      "हेर": 7163,
      "तीय": 7164,
      "दुस": 7165,
      "भागा": 7166,
      "जून": 7167,
      "यक": 7168,
      "केंद्र": 7169,
      "महिला": 7170,
      "्रीय": 7171,
      "प्रतिनिधी": 7172,
      "श्री": 7173,
      "करू": 7174,
      "दाखल": 7175,
      "वत": 7176,
      "वण": 7177,
      "क्रम": 7178,
      "देण्यात": 7179,
      "्रि": 7180,
      "मुला": 7181,
      "लेला": 7182,
      "ल्ली": 7183,
      "पुढे": 7184,
      "हार": 7185,
      "....": 7186,
      "भाव": 7187,
      "घेऊन": 7188,
      "सग": 7189,
      "विशेष": 7190,
      "मागणी": 7191,
      "पाटील": 7192,
      "पाल": 7193,
      "विश्": 7194,
      "क्षेत्र": 7195,
      "लेख": 7196,
      "गां": 7197,
      "पाच": 7198,
      "दिवसा": 7199,
      "फु": 7200,
      "वली": 7201,
      "शिक": 7202,
      "जग": 7203,
      "झालेल्या": 7204,
      "इतर": 7205,
      "फार": 7206,
      "ंत्र": 7207,
      "नागर": 7208,
      "खास": 7209,
      "बत": 7210,
      "पालिके": 7211,
      "पुन्हा": 7212,
      "दिवस": 7213,
      "वेळ": 7214,
      "घ्या": 7215,
      "दान": 7216,
      "खाली": 7217,
      "जर": 7218,
      "पुर": 7219,
      "असताना": 7220,
      "सध्या": 7221,
      "जिल्ह": 7222,
      "कला": 7223,
      "बांध": 7224,
      "ोल": 7225,
      "भाष": 7226,
      "पाद": 7227,
      "तीने": 7228,
      "राव": 7229,
      "बाहेर": 7230,
      "शह": 7231,
      "असल्याने": 7232,
      "द्दल": 7233,
      "स्पर्": 7234,
      "मान्य": 7235,
      "फक्त": 7236,
      "ण्याच्या": 7237,
      "निर्माण": 7238,
      "रण": 7239,
      "न्याया": 7240,
      "आयु": 7241,
      "पोलिस": 7242,
      "तेव्हा": 7243,
      "००": 7244,
      "कॅ": 7245,
      "प्रमा": 7246,
      "प्रमाण": 7247,
      "बन": 7248,
      "म्हा": 7249,
      "आल्या": 7250,
      "ज्या": 7251,
      "जू": 7252,
      "बाद": 7253,
      "जाते": 7254,
      "बँ": 7255,
      "मित": 7256,
      "स्थाप": 7257,
      "ठिकाणी": 7258,
      "मग": 7259,
      "सोबत": 7260,
      "नाहीत": 7261,
      "लेली": 7262,
      "निय": 7263,
      "अध्यक्ष": 7264,
      "घर": 7265,
      "वाच": 7266,
      "समिती": 7267,
      "स्थित": 7268,
      "क्रमा": 7269,
      "ज्ञा": 7270,
      "्यांना": 7271,
      "होईल": 7272,
      "ांचा": 7273,
      "अंत": 7274,
      "तं": 7275,
      "रुग्": 7276,
      "कल्प": 7277,
      "सोड": 7278,
      "बदल": 7279,
      "यांचा": 7280,
      "शोध": 7281,
      "त्यानंतर": 7282,
      "कर्म": 7283,
      "बद्दल": 7284,
      "न्न": 7285,
      "सुर": 7286,
      "प्रश्न": 7287,
      "धो": 7288,
      "भारतीय": 7289,
      "साध": 7290,
      "्थ": 7291,
      "क्षक": 7292,
      "वाज": 7293,
      "कधी": 7294,
      "तून": 7295,
      "ारी": 7296,
      "त्याने": 7297,
      "जाणार": 7298,
      "कामा": 7299,
      "कल": 7300,
      "माल": 7301,
      "जण": 7302,
      "सहा": 7303,
      "मार्ग": 7304,
      "ंतु": 7305,
      "पाव": 7306,
      "हवा": 7307,
      "प्रि": 7308,
      "देशा": 7309,
      "पती": 7310,
      "माझ्या": 7311,
      "ष्ठ": 7312,
      "नंद": 7313,
      "दर्श": 7314,
      "गड": 7315,
      "यावेळी": 7316,
      "्यांनी": 7317,
      "रंग": 7318,
      "खर": 7319,
      "क्स": 7320,
      "मोदी": 7321,
      "प्रत्येक": 7322,
      "करे": 7323,
      "इत": 7324,
      "शिक्षण": 7325,
      "खरे": 7326,
      "बरो": 7327,
      "परी": 7328,
      "शासना": 7329,
      "माध": 7330,
      "खात": 7331,
      "जास्त": 7332,
      "राम": 7333,
      "विकास": 7334,
      "रुपये": 7335,
      "अड": 7336,
      "म्हणाले": 7337,
      "खूप": 7338,
      "सर्वा": 7339,
      "नव्ह": 7340,
      "उमे": 7341,
      "पद": 7342,
      "घेतला": 7343,
      "धान": 7344,
      "अति": 7345,
      "बै": 7346,
      "कंपनी": 7347,
      "व्यक्त": 7348,
      "१९": 7349,
      "वर्षी": 7350,
      "उत्तर": 7351,
      "विभागा": 7352,
      "कार्या": 7353,
      "दिल्ली": 7354,
      "मोठ्या": 7355,
      "वान": 7356,
      "संबंध": 7357,
      "करता": 7358,
      "टक्के": 7359,
      "आधी": 7360,
      "व्यक्ती": 7361,
      "श्र": 7362,
      "यांचे": 7363,
      "परा": 7364,
      "याची": 7365,
      "कम": 7366,
      "क्या": 7367,
      "खु": 7368,
      "पुणे": 7369,
      "ढा": 7370,
      "प्त": 7371,
      "स्थान": 7372,
      "परंतु": 7373,
      "भव": 7374,
      "पदा": 7375,
      "याचा": 7376,
      "हॉ": 7377,
      "च्च": 7378,
      "यन": 7379,
      "लयात": 7380,
      "केवळ": 7381,
      "थो": 7382,
      "्यु": 7383,
      "दुर्": 7384,
      "टु": 7385,
      "विभाग": 7386,
      "कारवाई": 7387,
      "भारता": 7388,
      "स्पष्ट": 7389,
      "सद": 7390,
      "प्रमाणे": 7391,
      "चर्चा": 7392,
      "निवडणुकी": 7393,
      "त्याचा": 7394,
      "उमेद": 7395,
      "ल्वे": 7396,
      "गृ": 7397,
      "बरोबर": 7398,
      "बल": 7399,
      "रेल्वे": 7400,
      "क्री": 7401,
      "म्हट": 7402,
      "यश": 7403,
      "वं": 7404,
      "महत्": 7405,
      "भूमि": 7406,
      "बॉ": 7407,
      "कांच्या": 7408,
      "चो": 7409,
      "व्हे": 7410,
      "व्हि": 7411,
      "कळ": 7412,
      "पाय": 7413,
      "आमदार": 7414,
      "अं": 7415,
      "यावर": 7416,
      "शहर": 7417,
      "राष्ट्रवादी": 7418,
      "खेळ": 7419,
      "न्ही": 7420,
      "केट": 7421,
      "त्यांची": 7422,
      "ांचे": 7423,
      "सभा": 7424,
      "सुरुवात": 7425,
      "देत": 7426,
      "टाक": 7427,
      "अभ": 7428,
      "पोली": 7429,
      "चित्रपट": 7430,
      "पवार": 7431,
      "्टी": 7432,
      "नोंद": 7433,
      "करण्याची": 7434,
      "विक": 7435,
      "वर्षा": 7436,
      "परिष": 7437,
      "तुम": 7438,
      "सुमार": 7439,
      "परिसर": 7440,
      "म्हाला": 7441,
      "राष्ट": 7442,
      "लव": 7443,
      "यासाठी": 7444,
      "२०१": 7445,
      "माध्य": 7446,
      "मना": 7447,
      "तीत": 7448,
      "प्रकर": 7449,
      "उपस्थित": 7450,
      "पहिल्या": 7451,
      "र्ट": 7452,
      "घेतली": 7453,
      "मराठी": 7454,
      "तालु": 7455,
      "मतदार": 7456,
      "गेले": 7457,
      "मुख्यमंत्री": 7458,
      "बैठ": 7459,
      "दृ": 7460,
      "शकते": 7461,
      "त्यावर": 7462,
      "कोणत्या": 7463,
      "स्थे": 7464,
      "तरु": 7465,
      "राष्ट्रीय": 7466,
      "योग्य": 7467,
      "यंत्र": 7468,
      "यचे": 7469,
      "मधून": 7470,
      "नवीन": 7471,
      "शिवाय": 7472,
      "त्याची": 7473,
      "गण": 7474,
      "णारे": 7475,
      "ब्ध": 7476,
      "केलेल्या": 7477,
      "संघ": 7478,
      "पाहिजे": 7479,
      "खर्": 7480,
      "तिक": 7481,
      "भो": 7482,
      "रोजी": 7483,
      "होतो": 7484,
      "परिणा": 7485,
      "चना": 7486,
      "देव": 7487,
      "पोलिसांनी": 7488,
      "असतात": 7489,
      "उपल": 7490,
      "मदत": 7491,
      "अधिकारी": 7492,
      "नेते": 7493,
      "जीव": 7494,
      "हीर": 7495,
      "नाग": 7496,
      "प्रमुख": 7497,
      "नुक": 7498,
      "स्वी": 7499,
      "त्याच": 7500,
      "पार्": 7501,
      "र्स": 7502,
      "ातून": 7503,
      "उपलब्ध": 7504,
      "हिंद": 7505,
      "घटने": 7506,
      "पोलीस": 7507,
      "ंडी": 7508,
      "इन": 7509,
      "पैकी": 7510,
      "in": 7511,
      "भेट": 7512,
      "योजना": 7513,
      "द्धा": 7514,
      "स्वा": 7515,
      "201": 7516,
      "छा": 7517,
      "होऊ": 7518,
      "लॉ": 7519,
      "ंवर": 7520,
      "दोन्ही": 7521,
      "धु": 7522,
      "शेतक": 7523,
      "्म": 7524,
      "तू": 7525,
      "नागरि": 7526,
      "दर्भ": 7527,
      "उत्पाद": 7528,
      "ल्ला": 7529,
      "हान": 7530,
      "आंद": 7531,
      "राहि": 7532,
      "्स": 7533,
      "घाल": 7534,
      "त्यांचे": 7535,
      "शत": 7536,
      "ंडे": 7537,
      "आंदोल": 7538,
      "सिद्ध": 7539,
      "कशी": 7540,
      "सेवा": 7541,
      "सरकारने": 7542,
      "काश": 7543,
      "येईल": 7544,
      "१०": 7545,
      "पक्षा": 7546,
      "ावर": 7547,
      "वला": 7548,
      "बहु": 7549,
      "्ड": 7550,
      "ह्या": 7551,
      "र्म": 7552,
      "्यांच्या": 7553,
      "माजी": 7554,
      "होतं": 7555,
      "करीत": 7556,
      "तुम्ही": 7557,
      "शिवसेने": 7558,
      "जागा": 7559,
      "गं": 7560,
      "संख्या": 7561,
      "कुटु": 7562,
      "मांड": 7563,
      "अॅ": 7564,
      "तक्र": 7565,
      "विजय": 7566,
      "काल": 7567,
      "ल्याचे": 7568,
      "बाजू": 7569,
      "पणा": 7570,
      "रात्री": 7571,
      "धे": 7572,
      "मृत्य": 7573,
      "पद्ध": 7574,
      "तपास": 7575,
      "जाहीर": 7576,
      "णं": 7577,
      "स्टे": 7578,
      "मंत्र": 7579,
      "बाजार": 7580,
      "मध्य": 7581,
      "शब्": 7582,
      "त्ती": 7583,
      "यामुळे": 7584,
      "करण्याचा": 7585,
      "कट": 7586,
      "मै": 7587,
      "मॅ": 7588,
      "अभ्या": 7589,
      "त्याचे": 7590,
      "ओळ": 7591,
      "पर्या": 7592,
      "ल्यानंतर": 7593,
      "किती": 7594,
      "ड्या": 7595,
      "डू": 7596,
      "याच": 7597,
      "ांमध्ये": 7598,
      "व्ही": 7599,
      "टका": 7600,
      "वक": 7601,
      "),": 7602,
      "ूण": 7603,
      "शक्यता": 7604,
      "इं": 7605,
      "असतो": 7606,
      "प्रक्रि": 7607,
      "पंत": 7608,
      "नला": 7609,
      "धर": 7610,
      "मुली": 7611,
      "संघा": 7612,
      "अधिका": 7613,
      "गर्": 7614,
      "संप": 7615,
      "परिस्थिती": 7616,
      "अमे": 7617,
      "आई": 7618,
      "द्र": 7619,
      "वेत": 7620,
      "कारा": 7621,
      "काळात": 7622,
      "करताना": 7623,
      "कृती": 7624,
      "फाय": 7625,
      "द्यो": 7626,
      "शय": 7627,
      "अग": 7628,
      "केत": 7629,
      "र्या": 7630,
      "गिरी": 7631,
      "मंग": 7632,
      "विरोधात": 7633,
      "नव": 7634,
      "त्रा": 7635,
      "सर्वात": 7636,
      "साहे": 7637,
      "द्वार": 7638,
      "णारा": 7639,
      "क्षित": 7640,
      "ब्र": 7641,
      "रोज": 7642,
      "पावसा": 7643,
      "साहि": 7644,
      "पाकि": 7645,
      "तिच्या": 7646,
      "आर्थ": 7647,
      "ंमध्ये": 7648,
      "00": 7649,
      "प्रवा": 7650,
      "फी": 7651,
      "शकता": 7652,
      "इंड": 7653,
      "ठाकरे": 7654,
      "परत": 7655,
      "स्वतः": 7656,
      "सदस": 7657,
      "्‍या": 7658,
      "लहान": 7659,
      "लक्षात": 7660,
      "आर्थिक": 7661,
      "नेह": 7662,
      "गोष्टी": 7663,
      "आनंद": 7664,
      "गरज": 7665,
      "षण": 7666,
      "अगदी": 7667,
      "सकाळी": 7668,
      "उमेदवार": 7669,
      "गुण": 7670,
      "वाहन": 7671,
      "बॅ": 7672,
      "प्रवेश": 7673,
      "कू": 7674,
      "नाथ": 7675,
      "आलेल्या": 7676,
      "मंदि": 7677,
      "प्रधान": 7678,
      "दू": 7679,
      "टेल": 7680,
      "महापालिके": 7681,
      "ळून": 7682,
      "नावा": 7683,
      "महत्त्वा": 7684,
      "कांची": 7685,
      "परिणाम": 7686,
      "क्ट": 7687,
      "खर्च": 7688,
      "नये": 7689,
      "एन": 7690,
      "सिने": 7691,
      "मागे": 7692,
      "पं": 7693,
      "एखा": 7694,
      "१५": 7695,
      "अन्य": 7696,
      "याच्या": 7697,
      "खंड": 7698,
      "मृत्यू": 7699,
      "केलं": 7700,
      "्व": 7701,
      "दला": 7702,
      "वढ": 7703,
      "आरोप": 7704,
      "आरोग": 7705,
      "नेत": 7706,
      "गांधी": 7707,
      "फोन": 7708,
      "प्रकरणी": 7709,
      "नाशिक": 7710,
      "समावेश": 7711,
      "संदर्भ": 7712,
      "फर": 7713,
      "लवकर": 7714,
      "हून": 7715,
      "याबाबत": 7716,
      "झो": 7717,
      "भूमिका": 7718,
      "प्रथ": 7719,
      "साहेब": 7720,
      "त्यांचा": 7721,
      "खरेदी": 7722,
      "दारी": 7723,
      "सन": 7724,
      "लढ": 7725,
      "महिन": 7726,
      "माना": 7727,
      "कार्यकर्": 7728,
      "मिक": 7729,
      "सहभाग": 7730,
      "आघा": 7731,
      "राजकीय": 7732,
      "प्रशासना": 7733,
      "ओळख": 7734,
      "ंबा": 7735,
      "घोष": 7736,
      "भागात": 7737,
      "रंगा": 7738,
      "वू": 7739,
      "साद": 7740,
      "शेव": 7741,
      "यची": 7742,
      "युक्त": 7743,
      "क्षम": 7744,
      "उद्": 7745,
      "वृत्त": 7746,
      "निवडणूक": 7747,
      "चल": 7748,
      "शिक्ष": 7749,
      "ध्यक्ष": 7750,
      "आमच्या": 7751,
      "गट": 7752,
      "पथ": 7753,
      "मोठा": 7754,
      "अन": 7755,
      "घरा": 7756,
      "उपचार": 7757,
      "बघ": 7758,
      "सिंग": 7759,
      "विधानस": 7760,
      "आघाडी": 7761,
      "दहा": 7762,
      "वर्षां": 7763,
      "फोटो": 7764,
      "शल": 7765,
      "असता": 7766,
      "ग्राम": 7767,
      "स्ती": 7768,
      "र्गत": 7769,
      "आणखी": 7770,
      "लंब": 7771,
      "शं": 7772,
      "जाण": 7773,
      "कोणत्याही": 7774,
      "लागले": 7775,
      "कात": 7776,
      "देशात": 7777,
      "खड": 7778,
      "भु": 7779,
      "जल": 7780,
      "हास": 7781,
      "गै": 7782,
      "पाकिस्ता": 7783,
      "आत्": 7784,
      "----": 7785,
      "ताप": 7786,
      "संपूर्ण": 7787,
      "दिवशी": 7788,
      "रुग्णा": 7789,
      "मार्गा": 7790,
      "संत": 7791,
      "कौ": 7792,
      "कुमार": 7793,
      "प्रमाणात": 7794,
      "सव": 7795,
      "इच्छ": 7796,
      "मुल": 7797,
      "चंद्र": 7798,
      "समज": 7799,
      "जाऊ": 7800,
      "जिक": 7801,
      "दर्शन": 7802,
      "थां": 7803,
      "प्रकरण": 7804,
      "समस": 7805,
      "पालिका": 7806,
      "भारत": 7807,
      "करावी": 7808,
      "संस्था": 7809,
      "पुरव": 7810,
      "मंडळा": 7811,
      "कुटुंब": 7812,
      "एकदा": 7813,
      "अभ्यास": 7814,
      "लॅ": 7815,
      "म्हटले": 7816,
      "शेतकऱ्यां": 7817,
      "त्यासाठी": 7818,
      "करतात": 7819,
      "लय": 7820,
      "ंदे": 7821,
      "करणा": 7822,
      "क्का": 7823,
      "सादर": 7824,
      "रवि": 7825,
      "येते": 7826,
      "आधार": 7827,
      "ुल": 7828,
      "नव्या": 7829,
      "पॅ": 7830,
      "णारी": 7831,
      "र्ड": 7832,
      "गुरु": 7833,
      "न्यायालया": 7834,
      "शाळे": 7835,
      "गेला": 7836,
      "इंग": 7837,
      "्यांची": 7838,
      "सुमारे": 7839,
      "प्रकाश": 7840,
      "ळू": 7841,
      "पुस्त": 7842,
      "स्पर्धे": 7843,
      "ंज": 7844,
      "अजून": 7845,
      "दूर": 7846,
      "एकूण": 7847,
      "जबाब": 7848,
      "गुन्": 7849,
      "लग्": 7850,
      "शब्द": 7851,
      "खेळा": 7852,
      "मातून": 7853,
      "कसे": 7854,
      "द्वारे": 7855,
      "ंसाठी": 7856,
      "भूमी": 7857,
      "उघड": 7858,
      "जन्": 7859,
      "हाय": 7860,
      "हन": 7861,
      "शिष्ट": 7862,
      "वाहत": 7863,
      "पंतप्रधान": 7864,
      "जातो": 7865,
      "उच्च": 7866,
      "षी": 7867,
      "गेली": 7868,
      "सभे": 7869,
      "प्रथम": 7870,
      "यं": 7871,
      "मल": 7872,
      "घरी": 7873,
      "रक्": 7874,
      "आपल्याला": 7875,
      "योजन": 7876,
      "वर्षे": 7877,
      "वेद": 7878,
      "सचि": 7879,
      "आपले": 7880,
      "होत्या": 7881,
      "आदेश": 7882,
      "झे": 7883,
      "उद्यो": 7884,
      "ंडा": 7885,
      "लिहि": 7886,
      "इंडि": 7887,
      "भारतात": 7888,
      "है": 7889,
      "धिक": 7890,
      "तालुक": 7891,
      "मुद्": 7892,
      "आरोपी": 7893,
      "वाडी": 7894,
      "विषयी": 7895,
      "घेतले": 7896,
      "एल": 7897,
      "दीप": 7898,
      "वेळा": 7899,
      "ग्राह": 7900,
      "आदी": 7901,
      "विद्यापी": 7902,
      "काला": 7903,
      "...": 7904,
      "कायम": 7905,
      "घेण्यात": 7906,
      "असल्याची": 7907,
      "संधी": 7908,
      "बळ": 7909,
      "an": 7910,
      "त्री": 7911,
      "दम": 7912,
      "याला": 7913,
      "ल्ड": 7914,
      "आवड": 7915,
      "नाच्या": 7916,
      "अटक": 7917,
      "देशी": 7918,
      "प्रत्य": 7919,
      "सिं": 7920,
      "पैसे": 7921,
      "साहित्य": 7922,
      "नेहमी": 7923,
      "शकतो": 7924,
      "विरु": 7925,
      "ौर": 7926,
      "वणी": 7927,
      "क्टर": 7928,
      "दिवा": 7929,
      "तिला": 7930,
      "ऊस": 7931,
      "करुन": 7932,
      "सुद्धा": 7933,
      "कर्ज": 7934,
      "औष": 7935,
      "वंत": 7936,
      "टन": 7937,
      "धावा": 7938,
      "पुढील": 7939,
      "स्वर": 7940,
      "नाचा": 7941,
      "जातात": 7942,
      "ंदर": 7943,
      "सत्ता": 7944,
      "१२": 7945,
      "नावर": 7946,
      "सोम": 7947,
      "पारी": 7948,
      "विश्वास": 7949,
      "संगी": 7950,
      "शांत": 7951,
      "मोठी": 7952,
      "सरा": 7953,
      "अर्ज": 7954,
      "पोहो": 7955,
      "सै": 7956,
      "बार": 7957,
      "चर": 7958,
      "er": 7959,
      "खान": 7960,
      "वीस": 7961,
      "ज्ञान": 7962,
      "वाहतूक": 7963,
      "ठो": 7964,
      "ट्या": 7965,
      "करण्याचे": 7966,
      "यचा": 7967,
      "कर्मचार": 7968,
      "शहरा": 7969,
      "कोल्": 7970,
      "प्रस्ता": 7971,
      "रिक्त": 7972,
      "तार": 7973,
      "**": 7974,
      "फड": 7975,
      "करण्या": 7976,
      "अमेरि": 7977,
      "याचे": 7978,
      "निमि": 7979,
      "सामा": 7980,
      "जाने": 7981,
      "करावा": 7982,
      "प्रक्रिया": 7983,
      "ांवर": 7984,
      "इमार": 7985,
      "तम": 7986,
      "तरुण": 7987,
      "शिवसेना": 7988,
      "संबंधित": 7989,
      "आरोग्य": 7990,
      "टल": 7991,
      "दोघ": 7992,
      "माध्यमातून": 7993,
      "चौकशी": 7994,
      "विरुद्ध": 7995,
      "चु": 7996,
      "वॉ": 7997,
      "गाडी": 7998,
      "आपली": 7999,
      "निश्": 8000,
      "कुल": 8001,
      "विण्यात": 8002,
      "पुन": 8003,
      "कारी": 8004,
      "राज्यात": 8005,
      "प्रदेश": 8006,
      "तत्": 8007,
      "मनो": 8008,
      "अखे": 8009,
      "शास्त्र": 8010,
      "जित": 8011,
      "ल्यावर": 8012,
      "जाईल": 8013,
      "शर": 8014,
      "५०": 8015,
      "मीटर": 8016,
      "एकत्र": 8017,
      "िता": 8018,
      "चालक": 8019,
      "नारा": 8020,
      "जोर": 8021,
      "कॉले": 8022,
      "धिकारी": 8023,
      "प्प": 8024,
      "दिसत": 8025,
      "घरात": 8026,
      "यंदा": 8027,
      "वण्यात": 8028,
      "३०": 8029,
      "नेम": 8030,
      "ar": 8031,
      "क्की": 8032,
      "सत": 8033,
      "जोड": 8034,
      "चणी": 8035,
      "यर": 8036,
      "कुठ": 8037,
      "कर्मचा": 8038,
      "करो": 8039,
      "११": 8040,
      "सामान्य": 8041,
      "बंदी": 8042,
      "पोहोच": 8043,
      "गुन्हा": 8044,
      "10": 8045,
      "सां": 8046,
      "पदार": 8047,
      "साम": 8048,
      "बात": 8049,
      "बजा": 8050,
      "आढ": 8051,
      "शरी": 8052,
      "मंगळ": 8053,
      "शहरात": 8054,
      "आश्": 8055,
      "कोणी": 8056,
      "राब": 8057,
      "करणाऱ्या": 8058,
      "सान": 8059,
      "र्य": 8060,
      "तुम्हाला": 8061,
      "पर्य": 8062,
      "रीत": 8063,
      "ऑफ": 8064,
      "प्रो": 8065,
      "्यू": 8066,
      "खि": 8067,
      "रुग्ण": 8068,
      "मित्र": 8069,
      "गणे": 8070,
      "तक्रार": 8071,
      "ल्स": 8072,
      "खासदार": 8073,
      "19": 8074,
      "पत्": 8075,
      "भीर": 8076,
      "es": 8077,
      "नगरसे": 8078,
      "संस्थे": 8079,
      "क्‍": 8080,
      "होऊन": 8081,
      "गंभीर": 8082,
      "धन": 8083,
      "परिसरात": 8084,
      "करतो": 8085,
      "मेंट": 8086,
      "द्द": 8087,
      "फ्": 8088,
      "काने": 8089,
      "लाच": 8090,
      "स्वच्छ": 8091,
      "वय": 8092,
      "बाल": 8093,
      "पूर्व": 8094,
      "ताच": 8095,
      "लागली": 8096,
      "मंडळ": 8097,
      "विले": 8098,
      "अपघात": 8099,
      "क्रिकेट": 8100,
      "राजे": 8101,
      "मॉ": 8102,
      "योजित": 8103,
      "बैठकी": 8104,
      "थी": 8105,
      "शेतकरी": 8106,
      "ल्यास": 8107,
      "चांगले": 8108,
      "देऊन": 8109,
      "तुमच्या": 8110,
      "सारख्या": 8111,
      "थांब": 8112,
      "िम": 8113,
      "आपला": 8114,
      "सल": 8115,
      "रेंद्र": 8116,
      "जरा": 8117,
      "गावा": 8118,
      "ीय": 8119,
      "कल्या": 8120,
      "हित": 8121,
      "प्ट": 8122,
      "नागपूर": 8123,
      "फॉ": 8124,
      "सुट": 8125,
      "मूल": 8126,
      "ऑनला": 8127,
      "याने": 8128,
      "ँड": 8129,
      "मालि": 8130,
      "कोल्हा": 8131,
      "लै": 8132,
      "भूत": 8133,
      "प्रसिद्ध": 8134,
      "मज": 8135,
      "क्षि": 8136,
      "संस्": 8137,
      "लागला": 8138,
      "पुरस्": 8139,
      "शील": 8140,
      "स्तू": 8141,
      "श्व": 8142,
      "पाकिस्तान": 8143,
      "शहरातील": 8144,
      "समाज": 8145,
      "अधिकार": 8146,
      "कांत": 8147,
      "संदर्भात": 8148,
      "बुध": 8149,
      "शकत": 8150,
      "बाई": 8151,
      "य़ा": 8152,
      "अत्य": 8153,
      "शै": 8154,
      "दह": 8155,
      "सर्वो": 8156,
      "नर": 8157,
      "कामे": 8158,
      "तास": 8159,
      "पत्रकार": 8160,
      "गेल": 8161,
      "सेल": 8162,
      "जीवन": 8163,
      "णाला": 8164,
      "श्वर": 8165,
      "्याच्या": 8166,
      "मोबा": 8167,
      "शुक्र": 8168,
      "शनि": 8169,
      "उल्": 8170,
      "शिवा": 8171,
      "केंद": 8172,
      "कण": 8173,
      "मती": 8174,
      "वानगी": 8175,
      "धारण": 8176,
      "तिथे": 8177,
      "जिल्ह्यातील": 8178,
      "अधिकाऱ्यां": 8179,
      "पुरवठा": 8180,
      "ळ्यात": 8181,
      "कांचे": 8182,
      "प्रत्यक्ष": 8183,
      "पुरा": 8184,
      "ष्ण": 8185,
      "वातावर": 8186,
      "उदा": 8187,
      "वणूक": 8188,
      "शाळा": 8189,
      "गुंत": 8190,
      "र्फे": 8191,
      "कच": 8192,
      "at": 8193,
      "चीन": 8194,
      "राज्यातील": 8195,
      "क्ता": 8196,
      "विरोधी": 8197,
      "मिळत": 8198,
      "विद्यार्थी": 8199,
      "पंचा": 8200,
      "अर्थात": 8201,
      "उल": 8202,
      "on": 8203,
      "सामाजिक": 8204,
      "कॉलेज": 8205,
      "जिंक": 8206,
      "करावे": 8207,
      "अहवा": 8208,
      "र्मा": 8209,
      "संजय": 8210,
      "संर": 8211,
      "साई": 8212,
      "सारखे": 8213,
      "किंग": 8214,
      "विक्री": 8215,
      "करते": 8216,
      "सळ": 8217,
      "सिंह": 8218,
      "राहुल": 8219,
      "ष्य": 8220,
      "सिक": 8221,
      "प्रवास": 8222,
      "नेट": 8223,
      "कर्मचारी": 8224,
      "वर्त": 8225,
      "सरकारी": 8226,
      "कामगार": 8227,
      "२५": 8228,
      "वेळे": 8229,
      "सर्ग": 8230,
      "टीम": 8231,
      "वीज": 8232,
      "घोषणा": 8233,
      "अखेर": 8234,
      "थेट": 8235,
      "नाची": 8236,
      "जख": 8237,
      "छो": 8238,
      "धव": 8239,
      "षा": 8240,
      "खेळाडू": 8241,
      "ईन": 8242,
      "२००": 8243,
      "तुल": 8244,
      "न्याय": 8245,
      "वाल": 8246,
      "मिळाली": 8247,
      "इथे": 8248,
      "गोष्ट": 8249,
      "र्ती": 8250,
      "वर्ग": 8251,
      "यू": 8252,
      "औरंगा": 8253,
      "निर्मिती": 8254,
      "कुठे": 8255,
      "परवानगी": 8256,
      "गृह": 8257,
      "गुन्हे": 8258,
      "कल्पना": 8259,
      "कप": 8260,
      "भां": 8261,
      "वाड": 8262,
      "लाल": 8263,
      "नरेंद्र": 8264,
      "म्प": 8265,
      "सुधार": 8266,
      "निरी": 8267,
      "लंदा": 8268,
      "सूचना": 8269,
      "दिलेल्या": 8270,
      "लंड": 8271,
      "दहशत": 8272,
      "टाळ": 8273,
      "यामध्ये": 8274,
      "ठाणे": 8275,
      "अत्यंत": 8276,
      "वर्ण": 8277,
      "ध्": 8278,
      "सहभागी": 8279,
      "प्रकल्प": 8280,
      "नका": 8281,
      "रक्कम": 8282,
      "्याने": 8283,
      "दृष्टी": 8284,
      "स्थानिक": 8285,
      "्मक": 8286,
      "पहा": 8287,
      "नक्की": 8288,
      "उतर": 8289,
      "योगा": 8290,
      "भरात": 8291,
      "१८": 8292,
      "किलो": 8293,
      "योजने": 8294,
      "सिनेमा": 8295,
      "कार्यक्रम": 8296,
      "अभिने": 8297,
      "मोठे": 8298,
      "काळा": 8299,
      "लागू": 8300,
      "विधानसभा": 8301,
      "दिवसां": 8302,
      "परिषदे": 8303,
      "रावर": 8304,
      "्यांचा": 8305,
      "लागेल": 8306,
      "उभार": 8307,
      "यत": 8308,
      "पातळी": 8309,
      "मिनी": 8310,
      "सत्": 8311,
      "एवढ": 8312,
      "रोड": 8313,
      "पटा": 8314,
      "समस्या": 8315,
      "्यांचे": 8316,
      "कांचा": 8317,
      "काळजी": 8318,
      "त्यावेळी": 8319,
      "ीत": 8320,
      "सदस्य": 8321,
      "निवडणुकीत": 8322,
      "प्राप्त": 8323,
      "नुकसान": 8324,
      "उपा": 8325,
      "करण्यास": 8326,
      "धाव": 8327,
      "पंच": 8328,
      "औरंगाबाद": 8329,
      "मिनि": 8330,
      "ऐव": 8331,
      "वाचा": 8332,
      "प्रकल्": 8333,
      "वाजता": 8334,
      ">>": 8335,
      "दुसऱ्या": 8336,
      "आंदोलन": 8337,
      "नसल्याने": 8338,
      "अद्या": 8339,
      "ट्": 8340,
      "मुद": 8341,
      "अतिशय": 8342,
      "असलेले": 8343,
      "वातावरण": 8344,
      "विषय": 8345,
      "जाऊन": 8346,
      "जमा": 8347,
      "पॉ": 8348,
      "अंतर्गत": 8349,
      "........": 8350,
      "सौ": 8351,
      "निश्चित": 8352,
      "मीर": 8353,
      "लांब": 8354,
      "बारा": 8355,
      "ल्यामुळे": 8356,
      "आयोजित": 8357,
      "लाय": 8358,
      "घु": 8359,
      "एफ": 8360,
      "अंदा": 8361,
      "अनुभव": 8362,
      "स्थापन": 8363,
      "नदी": 8364,
      "जानेवारी": 8365,
      "आम्हाला": 8366,
      "चालू": 8367,
      "आलं": 8368,
      "ात्मक": 8369,
      "झालं": 8370,
      "बं": 8371,
      "उत्तम": 8372,
      "दायक": 8373,
      "केल्यानंतर": 8374,
      "जिल्ह्यात": 8375,
      "पदार्थ": 8376,
      "लिक": 8377,
      "सोमवारी": 8378,
      "लर": 8379,
      "तिहास": 8380,
      "उत्पादन": 8381,
      "क्षेत्रात": 8382,
      "संपर्": 8383,
      "पाड": 8384,
      "अद्याप": 8385,
      "पुरु": 8386,
      "तयारी": 8387,
      "महाराज": 8388,
      "तेथे": 8389,
      "तंत्र": 8390,
      "प्रेम": 8391,
      "पश्": 8392,
      "शिवाजी": 8393,
      "मागील": 8394,
      "बर्": 8395,
      "ट्रे": 8396,
      "व्यवस्था": 8397,
      "काढून": 8398,
      "लोकांना": 8399,
      "वतीने": 8400,
      "दिसून": 8401,
      "जनते": 8402,
      "नाला": 8403,
      "लात": 8404,
      "असले": 8405,
      "तरीही": 8406,
      "शिंदे": 8407,
      "अधि": 8408,
      "नियंत्र": 8409,
      "असो": 8410,
      "कार्यक्रमा": 8411,
      "्‍": 8412,
      "फिर": 8413,
      "लाभ": 8414,
      "वैद्य": 8415,
      "लोकसभा": 8416,
      "ing": 8417,
      "कायद्या": 8418,
      "नाचे": 8419,
      "चंड": 8420,
      "महिन्या": 8421,
      "समाजा": 8422,
      "संघात": 8423,
      "फडण": 8424,
      "आव्हा": 8425,
      "असेही": 8426,
      "एकमे": 8427,
      "जरी": 8428,
      "इट": 8429,
      "चव्हा": 8430,
      "कायदा": 8431,
      "राख": 8432,
      "तोड": 8433,
      "बँके": 8434,
      "वण्यासाठी": 8435,
      "इल": 8436,
      "१४": 8437,
      "सार्व": 8438,
      "जोरदार": 8439,
      "वित": 8440,
      "येतो": 8441,
      "बाबा": 8442,
      "आंब": 8443,
      "डक": 8444,
      "झाल्यानंतर": 8445,
      "कोल्हापूर": 8446,
      "विमान": 8447,
      "दिग्": 8448,
      "प्रचंड": 8449,
      "केंद्रीय": 8450,
      "भ्र": 8451,
      "जबाबदारी": 8452,
      "प्पा": 8453,
      "सामना": 8454,
      "नाट": 8455,
      "हीत": 8456,
      "आयुक्त": 8457,
      "कर्मचाऱ्यां": 8458,
      "अल्": 8459,
      "डिसे": 8460,
      "ब्बल": 8461,
      "सरी": 8462,
      "स्मार": 8463,
      "उद्ध": 8464,
      "आंतर": 8465,
      "ऐक": 8466,
      "मर": 8467,
      "पत्नी": 8468,
      "मीन": 8469,
      "गळ": 8470,
      "करायला": 8471,
      "उपाय": 8472,
      "शकतात": 8473,
      "टीका": 8474,
      "वाटत": 8475,
      "वस्तू": 8476,
      "मोर्": 8477,
      "ताब": 8478,
      "हू": 8479,
      "यादी": 8480,
      "मिर": 8481,
      "यचं": 8482,
      "णाचा": 8483,
      "अनि": 8484,
      "बू": 8485,
      "नियम": 8486,
      "मुंबईत": 8487,
      "आत": 8488,
      "ाच्या": 8489,
      "उड": 8490,
      "सें": 8491,
      "झाल्याने": 8492,
      "देशातील": 8493,
      "ळं": 8494,
      "सुविधा": 8495,
      "प्रिय": 8496,
      "ाने": 8497,
      "गती": 8498,
      "वेगळ्या": 8499,
      "असल्याचा": 8500,
      "आहोत": 8501,
      "जाधव": 8502,
      "प्रतिक": 8503,
      "कथा": 8504,
      "पत": 8505,
      "शरद": 8506,
      "दै": 8507,
      "डिसेंबर": 8508,
      "ळेल": 8509,
      "15": 8510,
      "महत्वा": 8511,
      "चव्हाण": 8512,
      "मेल": 8513,
      "१६": 8514,
      "पर्याय": 8515,
      "आवाहन": 8516,
      "पुरे": 8517,
      "पृ": 8518,
      "संघटने": 8519,
      "जखमी": 8520,
      "आग": 8521,
      "तब्बल": 8522,
      "ज्ये": 8523,
      "णाच्या": 8524,
      "डेल": 8525,
      "दावा": 8526,
      "मते": 8527,
      "णाची": 8528,
      "==": 8529,
      "ल्याची": 8530,
      "शक्ती": 8531,
      "वती": 8532,
      "र्ष": 8533,
      "or": 8534,
      "डिओ": 8535,
      "धि": 8536,
      "विना": 8537,
      "जन्म": 8538,
      "फत": 8539,
      "सोशल": 8540,
      "दक्षि": 8541,
      "लागणार": 8542,
      "मंगळवारी": 8543,
      "गर्दी": 8544,
      "कालाव": 8545,
      "असतील": 8546,
      "प्रचार": 8547,
      "फडणवीस": 8548,
      "साधारण": 8549,
      "कल्याण": 8550,
      "ंदी": 8551,
      "शिक्षक": 8552,
      "एखाद्या": 8553,
      "रूप": 8554,
      "कालावधी": 8555,
      "बांधकाम": 8556,
      "वाटते": 8557,
      "चित्रपटा": 8558,
      "बाकी": 8559,
      "मनात": 8560,
      "नै": 8561,
      "ळगाव": 8562,
      "दौ": 8563,
      "शहा": 8564,
      "क्ति": 8565,
      "मिळणार": 8566,
      "तालुक्यातील": 8567,
      "नक": 8568,
      "वस": 8569,
      "ज्येष्ठ": 8570,
      "रोख": 8571,
      "विला": 8572,
      "संघटना": 8573,
      "th": 8574,
      "पाऊस": 8575,
      "प्रकारे": 8576,
      "असू": 8577,
      "प्रतिसाद": 8578,
      "संख": 8579,
      "दुपारी": 8580,
      "मक": 8581,
      "प्रकल्पा": 8582,
      "टॅ": 8583,
      "नकार": 8584,
      "हिंदु": 8585,
      "मीडि": 8586,
      "यशस्वी": 8587,
      "मूळ": 8588,
      "फायदा": 8589,
      "प्रशास": 8590,
      "धक्का": 8591,
      "ऑक्": 8592,
      "षे": 8593,
      "प्रस्ताव": 8594,
      "खासगी": 8595,
      "बुधवारी": 8596,
      "रविवारी": 8597,
      "औषध": 8598,
      "कडा": 8599,
      "आकार": 8600,
      "ृत": 8601,
      "सुंदर": 8602,
      "भूमीवर": 8603,
      "पुरुष": 8604,
      "मतदान": 8605,
      "उद्योग": 8606,
      "काग": 8607,
      "थून": 8608,
      "प्रभा": 8609,
      "जारी": 8610,
      "पुरस्कार": 8611,
      "बरे": 8612,
      "वल": 8613,
      "मता": 8614,
      "भाऊ": 8615,
      "माणसा": 8616,
      "ेड": 8617,
      "विण्यासाठी": 8618,
      "स्त्री": 8619,
      "भावना": 8620,
      "मृत": 8621,
      "en": 8622,
      "महाप": 8623,
      "मां": 8624,
      "टिंग": 8625,
      "नार": 8626,
      "अ‍": 8627,
      "पाहा": 8628,
      "उदाहर": 8629,
      "असणार": 8630,
      "मार्च": 8631,
      "क्क": 8632,
      "पार्श्व": 8633,
      "चांगली": 8634,
      "ंभ": 8635,
      "आठवड": 8636,
      "al": 8637,
      "शुक्रवारी": 8638,
      "पन": 8639,
      "ad": 8640,
      "गावात": 8641,
      "भाजी": 8642,
      "होण्याची": 8643,
      "अ‍ॅ": 8644,
      "भाषा": 8645,
      "व्र": 8646,
      "नागरिक": 8647,
      "हल": 8648,
      "लग्न": 8649,
      "ठेवा": 8650,
      "स्वप्": 8651,
      "तिने": 8652,
      "इन्": 8653,
      "णावर": 8654,
      "बाळा": 8655,
      "शेती": 8656,
      "कोर्": 8657,
      "चिम": 8658,
      "लागते": 8659,
      "इमारती": 8660,
      "दरा": 8661,
      "वाला": 8662,
      "येतात": 8663,
      "व्याव": 8664,
      "१७": 8665,
      "कसा": 8666,
      "दुसरी": 8667,
      "१३": 8668,
      "समर्थ": 8669,
      "बद": 8670,
      "सापड": 8671,
      "धर्म": 8672,
      "विद्यार्थ्यांना": 8673,
      "ब्रि": 8674,
      "महिन्यात": 8675,
      "त्रास": 8676,
      "न्यायालयाने": 8677,
      "बैठक": 8678,
      "प्रवाश": 8679,
      "फू": 8680,
      "सुरक्षा": 8681,
      "वेल": 8682,
      "सूत्र": 8683,
      "येऊ": 8684,
      "मीण": 8685,
      "रद्द": 8686,
      "ग्रामीण": 8687,
      "वाना": 8688,
      "संचालक": 8689,
      "गैर": 8690,
      "्यावर": 8691,
      "हल्": 8692,
      "खल": 8693,
      "समु": 8694,
      "सुनाव": 8695,
      "रिक": 8696,
      "येत्या": 8697,
      "उर्": 8698,
      "माझा": 8699,
      "लवकरच": 8700,
      "ास": 8701,
      "संशोध": 8702,
      "भाजपा": 8703,
      "पात्र": 8704,
      "ग्रह": 8705,
      "शेवट": 8706,
      "नामा": 8707,
      "जेव्हा": 8708,
      "काली": 8709,
      "om": 8710,
      "वृत्ती": 8711,
      "रस्त्यावर": 8712,
      "नेतृ": 8713,
      "महापालिका": 8714,
      "पसर": 8715,
      "कोणती": 8716,
      "मिळाले": 8717,
      "मुख्यमंत्र": 8718,
      "काच्या": 8719,
      "शनिवारी": 8720,
      "हॉटेल": 8721,
      "संपर्क": 8722,
      "परे": 8723,
      "ळीत": 8724,
      "मिळाला": 8725,
      "सार्वज": 8726,
      "धोका": 8727,
      "देणे": 8728,
      "लागत": 8729,
      "त्यानुसार": 8730,
      "पालक": 8731,
      "ांसाठी": 8732,
      "रशि": 8733,
      "दिल्या": 8734,
      "गस्ट": 8735,
      "किमान": 8736,
      "नासाठी": 8737,
      "ऱया": 8738,
      "हिवा": 8739,
      "होतात": 8740,
      "सरकारच्या": 8741,
      "12": 8742,
      "पोस्ट": 8743,
      "ढी": 8744,
      "त्स": 8745,
      "सर्वाधिक": 8746,
      "म्हणतात": 8747,
      "्याचे": 8748,
      "ऐवजी": 8749,
      "अल": 8750,
      "जाती": 8751,
      "वेंद्र": 8752,
      "नव्हे": 8753,
      "अडचणी": 8754,
      "एसटी": 8755,
      "अस्": 8756,
      "वडा": 8757,
      "तपासणी": 8758,
      "असल्यामुळे": 8759,
      "नको": 8760,
      "दुका": 8761,
      "सार्वजनिक": 8762,
      "न्यू": 8763,
      "कोर्टा": 8764,
      "परीक्षा": 8765,
      "माने": 8766,
      "संवाद": 8767,
      "नोव्हे": 8768,
      "व्यवहार": 8769,
      "ठेवले": 8770,
      "येऊन": 8771,
      "उद्धव": 8772,
      "कंपन": 8773,
      "रॉ": 8774,
      "यातील": 8775,
      "घेणे": 8776,
      "टप्प": 8777,
      "आढळ": 8778,
      "झालेली": 8779,
      "तथा": 8780,
      "अंतिम": 8781,
      "करणारे": 8782,
      "नव्हते": 8783,
      "अक्ष": 8784,
      "जमिनी": 8785,
      "जागे": 8786,
      "गरजे": 8787,
      "मिळेल": 8788,
      "क्रे": 8789,
      "स्पर्धा": 8790,
      "नसल्याचे": 8791,
      "नाटक": 8792,
      "उद्या": 8793,
      "पाळ": 8794,
      "त्यातून": 8795,
      "कार्यालया": 8796,
      "बँक": 8797,
      "कले": 8798,
      "ट्स": 8799,
      "शाळ": 8800,
      "वाहि": 8801,
      "एप्रि": 8802,
      "फुट": 8803,
      "मंदिर": 8804,
      "श्रे": 8805,
      "अनेकदा": 8806,
      "नाम": 8807,
      "कामगिरी": 8808,
      "एप्रिल": 8809,
      "वाढत": 8810,
      "उत्प": 8811,
      "अंदाज": 8812,
      "हल्ला": 8813,
      "पोर्ट": 8814,
      "सतत": 8815,
      "देण्यासाठी": 8816,
      "चांगला": 8817,
      "कस": 8818,
      "यम": 8819,
      "मुले": 8820,
      "्रेस": 8821,
      "राहणार": 8822,
      "सामन": 8823,
      "द्धी": 8824,
      "कवि": 8825,
      "रोग": 8826,
      "डीने": 8827,
      "बला": 8828,
      "नोकरी": 8829,
      "पळ": 8830,
      "स्वतंत्र": 8831,
      "शाही": 8832,
      "राय": 8833,
      "रस्ता": 8834,
      "हवे": 8835,
      "ऑगस्ट": 8836,
      "30": 8837,
      "साह": 8838,
      "आत्मह": 8839,
      "तळ": 8840,
      "भविष": 8841,
      "२४": 8842,
      "बाजूला": 8843,
      "स्वात": 8844,
      "ांती": 8845,
      "जुलै": 8846,
      "आंतरराष्ट्रीय": 8847,
      "स्टेशन": 8848,
      "साडे": 8849,
      "आतापर्यंत": 8850,
      "काँग्रेसचे": 8851,
      "निघा": 8852,
      "पद्धतीने": 8853,
      "तेच": 8854,
      "व्यावसाय": 8855,
      "स्पि": 8856,
      "ल्ल": 8857,
      "वैद्यकीय": 8858,
      "नोव्हेंबर": 8859,
      "संग": 8860,
      "ंढ": 8861,
      "स्वीकार": 8862,
      "हाती": 8863,
      "गरी": 8864,
      "राजकारण": 8865,
      "स्ट्रे": 8866,
      "उभे": 8867,
      "एकाच": 8868,
      "झि": 8869,
      "दय": 8870,
      "प्रकरणात": 8871,
      "हळू": 8872,
      "व्यवसाय": 8873,
      "ाला": 8874,
      "कलाकार": 8875,
      "मंज": 8876,
      "ed": 8877,
      "मधे": 8878,
      "तेल": 8879,
      "छान": 8880,
      "असलेली": 8881,
      "ic": 8882,
      "गुरुवारी": 8883,
      "बाळ": 8884,
      "ताब्यात": 8885,
      "प्रयोग": 8886,
      "काश्": 8887,
      "निरीक्षक": 8888,
      "वादा": 8889,
      "उचल": 8890,
      "टोबर": 8891,
      "चर्चे": 8892,
      "is": 8893,
      "ब्रा": 8894,
      "असलेला": 8895,
      "ूस": 8896,
      "क्षी": 8897,
      "वर्षात": 8898,
      "बैठकीत": 8899,
      "संरक्षण": 8900,
      "मर्या": 8901,
      "विश्व": 8902,
      "ऑनलाइन": 8903,
      "अन्न": 8904,
      "रस": 8905,
      "वितर": 8906,
      "इश": 8907,
      "भरा": 8908,
      "पाक": 8909,
      "दक्षिण": 8910,
      "केलेली": 8911,
      "माझी": 8912,
      "महाविद्या": 8913,
      "कार्ड": 8914,
      "ंता": 8915,
      "कर्ष": 8916,
      "झालेले": 8917,
      "प्रती": 8918,
      "वेगळे": 8919,
      "अमेरिके": 8920,
      "विजे": 8921,
      "केलेले": 8922,
      "मूर्ती": 8923,
      "गामी": 8924,
      "विकासा": 8925,
      "मैदा": 8926,
      "मुक्त": 8927,
      "केल": 8928,
      "गणेश": 8929,
      "्यांमध्ये": 8930,
      "परिषद": 8931,
      "ट्रो": 8932,
      "वीर": 8933,
      "देणार": 8934,
      "अपेक्षा": 8935,
      "सीसी": 8936,
      "सगळे": 8937,
      "नियंत्रण": 8938,
      "तसं": 8939,
      "दुष्": 8940,
      "ंती": 8941,
      "म्स": 8942,
      "किंमत": 8943,
      "दिन": 8944,
      "वास्त": 8945,
      "य्य": 8946,
      "व्यात": 8947,
      "नील": 8948,
      "पाहून": 8949,
      "राजा": 8950,
      "50": 8951,
      "अन्": 8952,
      "पिं": 8953,
      "तक्रारी": 8954,
      "भागातील": 8955,
      "व्हर": 8956,
      "प्टे": 8957,
      "टॉ": 8958,
      "देऊ": 8959,
      "’,": 8960,
      "गतिक": 8961,
      "संबं": 8962,
      "निवडणु": 8963,
      "टिक": 8964,
      "विद्यापीठ": 8965,
      "सप्टे": 8966,
      "बाजी": 8967,
      "घेता": 8968,
      "सुमारास": 8969,
      "इच्छा": 8970,
      "नाई": 8971,
      "४०": 8972,
      "भांड": 8973,
      "साव": 8974,
      "मराठा": 8975,
      "ब्रु": 8976,
      "तीव्र": 8977,
      "गैरे": 8978,
      "निष्": 8979,
      "कै": 8980,
      "अवलंब": 8981,
      "रत": 8982,
      "घटक": 8983,
      "रक्त": 8984,
      "संख्ये": 8985,
      "लिंग": 8986,
      "मनसे": 8987,
      "कृषी": 8988,
      "गॅ": 8989,
      "दुरु": 8990,
      "देवेंद्र": 8991,
      "साली": 8992,
      "कोर": 8993,
      "हत्या": 8994,
      "जवळपास": 8995,
      "वरि": 8996,
      "संस्थ": 8997,
      "वगैरे": 8998,
      "तोंड": 8999,
      "सहज": 9000,
      "सायं": 9001,
      "युती": 9002,
      "लच्या": 9003,
      "अथ": 9004,
      "उलट": 9005,
      "लाही": 9006,
      "रिंग": 9007,
      "दास": 9008,
      "शेअर": 9009,
      "फस": 9010,
      "सप्टेंबर": 9011,
      "इशारा": 9012,
      "स्तु": 9013,
      "टीव्ही": 9014,
      "सोडून": 9015,
      "वता": 9016,
      "कुणी": 9017,
      "झालेला": 9018,
      "इंग्": 9019,
      "स्पर्धेत": 9020,
      "रवी": 9021,
      "अहवाल": 9022,
      "स्वयं": 9023,
      "ऑक्टोबर": 9024,
      "रुग्णालयात": 9025,
      "जागतिक": 9026,
      "दर्शक": 9027,
      "बोलताना": 9028,
      "मंजूर": 9029,
      "जै": 9030,
      "डॉक्ट": 9031,
      "आयोगा": 9032,
      "शोक": 9033,
      "माय": 9034,
      "ठाण्यात": 9035,
      "एच": 9036,
      "आवाज": 9037,
      "ट्वि": 9038,
      "पार्श्वभूमीवर": 9039,
      "ल्याचा": 9040,
      "स्थितीत": 9041,
      "ध्द": 9042,
      "नव्हती": 9043,
      "वणे": 9044,
      "सूल": 9045,
      "मुलांना": 9046,
      "दर्जा": 9047,
      "दृष्टीने": 9048,
      "न्यायालयात": 9049,
      "महापौर": 9050,
      "कोणता": 9051,
      "क्षमता": 9052,
      "हाल": 9053,
      "लावून": 9054,
      "सुरे": 9055,
      "संगीत": 9056,
      "--------": 9057,
      "कृत": 9058,
      "बोलत": 9059,
      "कावर": 9060,
      "निमित्त": 9061,
      "गाय": 9062,
      "चोर": 9063,
      "फॅ": 9064,
      "नाय": 9065,
      "वैशिष्ट": 9066,
      "माला": 9067,
      "दंड": 9068,
      "पान": 9069,
      "कार्": 9070,
      "प्रतिक्रि": 9071,
      "१००": 9072,
      "अंग": 9073,
      "प्रशासनाने": 9074,
      "इंटर": 9075,
      "उठ": 9076,
      "असल्यास": 9077,
      "सॉ": 9078,
      "सोह": 9079,
      "हवी": 9080,
      "बाबतीत": 9081,
      "चिक": 9082,
      "सचिन": 9083,
      "होणाऱ्या": 9084,
      "11": 9085,
      "बाय": 9086,
      "जरात": 9087,
      "्यांवर": 9088,
      "आयुष": 9089,
      "मुद्दा": 9090,
      "कचरा": 9091,
      "__": 9092,
      "आधीच": 9093,
      "बरी": 9094,
      "विद्य": 9095,
      "पश्चिम": 9096,
      "रचना": 9097,
      "फ्ट": 9098,
      "२२": 9099,
      "अचा": 9100,
      "हाण": 9101,
      "खालील": 9102,
      "ग्रस्त": 9103,
      "सर्वच": 9104,
      "उल्लेख": 9105,
      "विली": 9106,
      "पुनर्": 9107,
      "विभागाने": 9108,
      "पूर्णपणे": 9109,
      "अण": 9110,
      "नावे": 9111,
      "परिसरातील": 9112,
      "पट्टी": 9113,
      "हस": 9114,
      "चुकी": 9115,
      "शेवटी": 9116,
      "गुरू": 9117,
      "वाने": 9118,
      "शस्त्र": 9119,
      "चेह": 9120,
      "फेब्रु": 9121,
      "राही": 9122,
      "प्रणा": 9123,
      "माझे": 9124,
      "नागरिकांना": 9125,
      "हिंदू": 9126,
      "निरा": 9127,
      "पद्धती": 9128,
      "घडली": 9129,
      "आयोजन": 9130,
      "नव्हता": 9131,
      "मण": 9132,
      "असली": 9133,
      "हेच": 9134,
      "स्ट्रेलि": 9135,
      "विद्यापीठा": 9136,
      "ळात": 9137,
      "अजूनही": 9138,
      "क्रमांक": 9139,
      "भाजपचे": 9140,
      "्याला": 9141,
      "मंत्रा": 9142,
      "फेब्रुवारी": 9143,
      "डॉक्टर": 9144,
      "पहिला": 9145,
      "तां": 9146,
      "साखर": 9147,
      "सगळ्या": 9148,
      "स्वातंत्र": 9149,
      "मंडळी": 9150,
      "प्रार": 9151,
      "क्शन": 9152,
      "आव्हान": 9153,
      "प्ला": 9154,
      "सरकारला": 9155,
      "ंडू": 9156,
      "नॉ": 9157,
      "तळा": 9158,
      "येणाऱ्या": 9159,
      "महाराष्ट्रात": 9160,
      "सभेत": 9161,
      "संबंधी": 9162,
      "लष्": 9163,
      "पडला": 9164,
      "२१": 9165,
      "देण्याची": 9166,
      "वरिष्ठ": 9167,
      "नाते": 9168,
      "दुसरा": 9169,
      "अचानक": 9170,
      "ऑस्ट्रेलि": 9171,
      "मुलगा": 9172,
      "र्ण": 9173,
      "मुलगी": 9174,
      "18": 9175,
      "प्रणाली": 9176,
      "लू": 9177,
      "देशमुख": 9178,
      "अपे": 9179,
      "भाषे": 9180,
      "अह": 9181,
      "यापूर्वी": 9182,
      "डून": 9183,
      "नॅ": 9184,
      "स्ते": 9185,
      "चढ": 9186,
      "अजित": 9187,
      "नगरसेवक": 9188,
      "स्फो": 9189,
      "निकाल": 9190,
      "हॉस्पि": 9191,
      "घेण्यासाठी": 9192,
      "तर्फे": 9193,
      "बाजारात": 9194,
      "ज्य": 9195,
      "निघ": 9196,
      "सभाग": 9197,
      "सत्ते": 9198,
      "सुरुवाती": 9199,
      "सला": 9200,
      "वाहना": 9201,
      "म्हटलं": 9202,
      "तला": 9203,
      "कदा": 9204,
      "सर्वोच्च": 9205,
      "वाढी": 9206,
      "सभागृ": 9207,
      "इंग्र": 9208,
      "इंजि": 9209,
      "कशा": 9210,
      "नियोजन": 9211,
      "जिल्हाधिकारी": 9212,
      "बुक": 9213,
      "काहीही": 9214,
      "ट्रोल": 9215,
      "उमेदवारी": 9216,
      "संशय": 9217,
      "इतिहास": 9218,
      "गुजरात": 9219,
      "नोंदणी": 9220,
      "क्रीडा": 9221,
      "जातील": 9222,
      "लढा": 9223,
      "धिका": 9224,
      "सीबी": 9225,
      "पोट": 9226,
      "माहीत": 9227,
      "वलं": 9228,
      "ष्टा": 9229,
      "काप": 9230,
      "होणे": 9231,
      "गल": 9232,
      "सुरक्षित": 9233,
      "कोकण": 9234,
      "थि": 9235,
      "मुस्": 9236,
      "ंग्रेस": 9237,
      "बजावणी": 9238,
      "झाल्याचे": 9239,
      "घाट": 9240,
      "शाळेत": 9241,
      "झु": 9242,
      "वडे": 9243,
      "प्रतिक्रिया": 9244,
      "घालून": 9245,
      "महत्त्व": 9246,
      "अंमल": 9247,
      "कत": 9248,
      "माती": 9249,
      "अंध": 9250,
      "कसो": 9251,
      "लोकप्रिय": 9252,
      "आलेले": 9253,
      "करण्याच्या": 9254,
      "लगे": 9255,
      "पर्यावर": 9256,
      ").": 9257,
      "अशोक": 9258,
      "डॉक्टरा": 9259,
      "अत्या": 9260,
      "निया": 9261,
      "कर्ण": 9262,
      "पकड": 9263,
      "ंदू": 9264,
      "कोर्ट": 9265,
      "निर": 9266,
      "कूल": 9267,
      "वडी": 9268,
      "ठीण": 9269,
      "मोहि": 9270,
      "अली": 9271,
      "बदला": 9272,
      "मोरे": 9273,
      "गुंतवणूक": 9274,
      "जुन्या": 9275,
      "धोरण": 9276,
      "तशी": 9277,
      "कठीण": 9278,
      "सांगण्यात": 9279,
      "जुरी": 9280,
      "कालीन": 9281,
      "आश्वास": 9282,
      "विधान": 9283,
      "स्वरू": 9284,
      "दिसते": 9285,
      "जमीन": 9286,
      "मंत्रि": 9287,
      "समान": 9288,
      "मार्गावर": 9289,
      "सेस": 9290,
      "ाची": 9291,
      "दुर्लक्ष": 9292,
      "राणे": 9293,
      "धान्य": 9294,
      "हिर": 9295,
      "ॅम": 9296,
      "स्मार्ट": 9297,
      "****": 9298,
      "पाठि": 9299,
      "नास": 9300,
      "चोरी": 9301,
      "कांमध्ये": 9302,
      "वेगवेगळ्या": 9303,
      "आयुक्ता": 9304,
      "2019": 9305,
      "प्ले": 9306,
      "भीती": 9307,
      "सांगत": 9308,
      "्रो": 9309,
      "वडि": 9310,
      "सांगा": 9311,
      "त्यातील": 9312,
      "बळी": 9313,
      "निमित्ता": 9314,
      "कमा": 9315,
      "पक": 9316,
      "त्रे": 9317,
      "यानंतर": 9318,
      "देवी": 9319,
      "सुनावणी": 9320,
      "द्दी": 9321,
      "सचिव": 9322,
      "असल्याचं": 9323,
      "जोशी": 9324,
      "मोह": 9325,
      "णाचे": 9326,
      "धुनिक": 9327,
      "गाठ": 9328,
      "जाता": 9329,
      "त्रि": 9330,
      "दीड": 9331,
      "कसोटी": 9332,
      "चाकी": 9333,
      "सगळ": 9334,
      "कॉंग्रेस": 9335,
      "यांच्यासह": 9336,
      "कांवर": 9337,
      "लीत": 9338,
      "वर्षांपासून": 9339,
      "200": 9340,
      "माणूस": 9341,
      "विन": 9342,
      "देशीर": 9343,
      "फॉर्म": 9344,
      "व्हिडिओ": 9345,
      "25": 9346,
      "स्टि": 9347,
      "प्राथ": 9348,
      "ल्क": 9349,
      "वृत्": 9350,
      "असला": 9351,
      "सन्": 9352,
      "हातात": 9353,
      "कित": 9354,
      "मानसिक": 9355,
      "मोबाईल": 9356,
      "अतिरिक्त": 9357,
      "्याची": 9358,
      "ब्रे": 9359,
      "केस": 9360,
      "सांगितलं": 9361,
      "सामन्यात": 9362,
      "चिन्": 9363,
      "विस्त": 9364,
      "प्रेक्ष": 9365,
      "कॉल": 9366,
      "पराभव": 9367,
      "अभिनेत्री": 9368,
      "it": 9369,
      "करिता": 9370,
      "as": 9371,
      "बाग": 9372,
      "महिले": 9373,
      "पोलिसांना": 9374,
      "अंमलबजावणी": 9375,
      "प्राथमिक": 9376,
      "वेदन": 9377,
      "जाणून": 9378,
      "र्त": 9379,
      "नऊ": 9380,
      "क्यात": 9381,
      "नीय": 9382,
      "पडले": 9383,
      "निर्देश": 9384,
      "वक्त": 9385,
      "स्टर": 9386,
      "स्थापना": 9387,
      "कागद": 9388,
      "्वी": 9389,
      "सायंकाळी": 9390,
      "कोणतीही": 9391,
      "एकच": 9392,
      "पहिली": 9393,
      "लंदाज": 9394,
      "मोर्चा": 9395,
      "दृष्ट": 9396,
      "शरीर": 9397,
      "यांच्यावर": 9398,
      "विनो": 9399,
      "प्रशिक्षण": 9400,
      "णासाठी": 9401,
      "२६": 9402,
      "विशिष्ट": 9403,
      "वाटा": 9404,
      "राजी": 9405,
      "संस्कृती": 9406,
      "इस": 9407,
      "तित": 9408,
      "पोह": 9409,
      "इंडिया": 9410,
      "श्या": 9411,
      "फेरी": 9412,
      "केलेला": 9413,
      "दात": 9414,
      "हट": 9415,
      "मराठ": 9416,
      "प्रदर्श": 9417,
      "हॉस्पिटल": 9418,
      "नल": 9419,
      "लगेच": 9420,
      "सारखी": 9421,
      "वितरण": 9422,
      "येतील": 9423,
      "गायक": 9424,
      "इतके": 9425,
      "असतं": 9426,
      "याद": 9427,
      "घेऊ": 9428,
      "धरण": 9429,
      "२३": 9430,
      "विशेषत": 9431,
      "क्षणिक": 9432,
      "स्क": 9433,
      "फेस": 9434,
      "ाचे": 9435,
      "दखल": 9436,
      "अथवा": 9437,
      "स्पे": 9438,
      "तेही": 9439,
      "गौ": 9440,
      "फटका": 9441,
      "हृ": 9442,
      "स्टिक": 9443,
      "कांसाठी": 9444,
      "र्क": 9445,
      "le": 9446,
      "��": 9447,
      "प्रकारच्या": 9448,
      "वार्": 9449,
      "झाड": 9450,
      "वूड": 9451,
      "आगामी": 9452,
      "जम": 9453,
      "शिक्षा": 9454,
      "हस्ते": 9455,
      "खां": 9456,
      "आत्महत्या": 9457,
      "ंत्रिक": 9458,
      "काहीच": 9459,
      "काश्मीर": 9460,
      "वरुन": 9461,
      "ाचा": 9462,
      "बसला": 9463,
      "जंग": 9464,
      "तातडीने": 9465,
      "समुद्र": 9466,
      "आदि": 9467,
      "महापालिकेच्या": 9468,
      "तोय": 9469,
      "चॅ": 9470,
      "कोट": 9471,
      "ठेवण्यात": 9472,
      "वारं": 9473,
      "वरित": 9474,
      "त्यांच्यावर": 9475,
      "क्रमात": 9476,
      "परं": 9477,
      "्याचा": 9478,
      "खरं": 9479,
      "मतदारसंघात": 9480,
      "घन": 9481,
      "काचे": 9482,
      "पुला": 9483,
      "स्कर": 9484,
      "मोबाइल": 9485,
      "महे": 9486,
      "असणे": 9487,
      "व्यति": 9488,
      "म्हणजेच": 9489,
      "कारक": 9490,
      "नवा": 9491,
      "संध्या": 9492,
      "देण्याचा": 9493,
      "रोजगार": 9494,
      "तात्": 9495,
      "राऊ": 9496,
      "साजरा": 9497,
      "',": 9498,
      "रस्ते": 9499,
      "खट": 9500,
      "निमित्ताने": 9501,
      "राट": 9502,
      "जनता": 9503,
      "ठ्": 9504,
      "केल्याने": 9505,
      "फळ": 9506,
      "कृष्ण": 9507,
      "राहिले": 9508,
      "14": 9509,
      "रुपयांची": 9510,
      "मुंबईतील": 9511,
      "विज": 9512,
      "सारखा": 9513,
      "हॅ": 9514,
      "सले": 9515,
      "बरोबरच": 9516,
      "गरजेचे": 9517,
      "नियमित": 9518,
      "सल्ला": 9519,
      "व्यवस्थे": 9520,
      "दूध": 9521,
      "ज्ज्ञ": 9522,
      "टू": 9523,
      "शॉ": 9524,
      "तसा": 9525,
      "पृथ": 9526,
      "!!": 9527,
      "नग": 9528,
      "ंकडे": 9529,
      "शू": 9530,
      "प्री": 9531,
      "जाहि": 9532,
      "चेंडू": 9533,
      "पडली": 9534,
      "भाजपच्या": 9535,
      "ल्यात": 9536,
      "सित": 9537,
      "उत्पन्न": 9538,
      "ुप": 9539,
      "बड": 9540,
      "डीत": 9541,
      "बघा": 9542,
      "वाईट": 9543,
      "इंग्लंड": 9544,
      "युद्ध": 9545,
      "दुरुस्ती": 9546,
      "स्टार": 9547,
      "अवलंबून": 9548,
      "पाई": 9549,
      "णात": 9550,
      "वापरले": 9551,
      "नच्या": 9552,
      "कोणताही": 9553,
      "ळक": 9554,
      "अनिल": 9555,
      "मुंडे": 9556,
      "ऊर्": 9557,
      "ग्रं": 9558,
      "रिया": 9559,
      "फल": 9560,
      "सहकारी": 9561,
      "वेब": 9562,
      "रहिवा": 9563,
      "२८": 9564,
      "शैक्षणिक": 9565,
      "वर्षांत": 9566,
      "झी": 9567,
      "व्यावसायिक": 9568,
      "६०": 9569,
      "कौतु": 9570,
      "यातून": 9571,
      "com": 9572,
      "भेटी": 9573,
      "क्षेत्रातील": 9574,
      "मोक": 9575,
      "मोज": 9576,
      "सोय": 9577,
      "सोप": 9578,
      "कार्यालयात": 9579,
      "ou": 9580,
      "केश": 9581,
      "पातळीवर": 9582,
      "माफी": 9583,
      "साठ": 9584,
      "आंबेड": 9585,
      "रहा": 9586,
      "पंचायत": 9587,
      "च्छा": 9588,
      "मनु": 9589,
      "टक्क": 9590,
      "२७": 9591,
      "कृष्ट": 9592,
      "गडा": 9593,
      "धर्मा": 9594,
      "तिस": 9595,
      "ठेवून": 9596,
      "पाला": 9597,
      "विनं": 9598,
      "ोष": 9599,
      "सिटी": 9600,
      "पटू": 9601,
      "आड": 9602,
      "दिवसांत": 9603,
      "लागतो": 9604,
      "16": 9605,
      "चांगल्या": 9606,
      "ठार": 9607,
      "अमित": 9608,
      "सोसाय": 9609,
      "बरा": 9610,
      "आलेली": 9611,
      "कदाचित": 9612,
      "स्टा": 9613,
      "मुदत": 9614,
      "मंदिरा": 9615,
      "दश": 9616,
      "दिशे": 9617,
      "क्ल": 9618,
      "मस्त": 9619,
      "कून": 9620,
      "चूक": 9621,
      "पाहिले": 9622,
      "मिळते": 9623,
      "में": 9624,
      "सोला": 9625,
      "पुण्या": 9626,
      "वडिला": 9627,
      "ंकडून": 9628,
      "वीत": 9629,
      "ष्ठा": 9630,
      "वाघ": 9631,
      "मानले": 9632,
      "ळकर": 9633,
      "आजही": 9634,
      "यल": 9635,
      "वारंवार": 9636,
      "क्रिया": 9637,
      "वापरा": 9638,
      "अस्ति": 9639,
      "करु": 9640,
      "यीन": 9641,
      "फोड": 9642,
      "गोंध": 9643,
      "नसेल": 9644,
      "मार्फत": 9645,
      "जेट": 9646,
      "पाहता": 9647,
      "काहीतरी": 9648,
      "स्टॉ": 9649,
      "रं": 9650,
      "दित": 9651,
      "अल्प": 9652,
      "जॉ": 9653,
      "हिं": 9654,
      "रत्": 9655,
      "उन": 9656,
      "उपयोग": 9657,
      "राहा": 9658,
      "स्थानी": 9659,
      "एक्": 9660,
      "प्रश्ना": 9661,
      "नाईक": 9662,
      "बंग": 9663,
      "विनंती": 9664,
      "सत्य": 9665,
      "म्हणत": 9666,
      "युक्ती": 9667,
      "झोप": 9668,
      "सभापती": 9669,
      "सावंत": 9670,
      "इंग्रजी": 9671,
      "सागर": 9672,
      "शिफार": 9673,
      "महत्त्वाचे": 9674,
      "केल्यास": 9675,
      "वाडा": 9676,
      "विधानसभे": 9677,
      "कार्यकर्ते": 9678,
      "तसेवा": 9679,
      "आढा": 9680,
      "व्यक्ति": 9681,
      "मूद": 9682,
      "मेट्रो": 9683,
      "यंत्रणा": 9684,
      "व्यतिरिक्त": 9685,
      "कुठल्या": 9686,
      "शेख": 9687,
      "फ्रे": 9688,
      "शासकीय": 9689,
      "व्हायर": 9690,
      "ंतून": 9691,
      "सुनील": 9692,
      "तथापि": 9693,
      "विसर": 9694,
      "आकर्ष": 9695,
      "आल्याने": 9696,
      "र्न": 9697,
      "सोपे": 9698,
      "वल्या": 9699,
      "जाहिरात": 9700,
      "जावे": 9701,
      "समजून": 9702,
      "पाण्या": 9703,
      "दिवाळी": 9704,
      "वृत्तसेवा": 9705,
      "तिचा": 9706,
      "गाड": 9707,
      "विभागाच्या": 9708,
      "आत्म": 9709,
      "पुरात": 9710,
      "तासा": 9711,
      "जगा": 9712,
      "करायचे": 9713,
      "ंत्रा": 9714,
      "पाऊ": 9715,
      "डिंग": 9716,
      "पृथ्वी": 9717,
      "शर्मा": 9718,
      "स्वच्छता": 9719,
      "परिस्थितीत": 9720,
      "उपक्रम": 9721,
      "पाठिंबा": 9722,
      "परीक्षे": 9723,
      "इथ": 9724,
      "इतकी": 9725,
      "सक्षम": 9726,
      "करोना": 9727,
      "पाठी": 9728,
      "रिक्षा": 9729,
      "निवडून": 9730,
      "वळी": 9731,
      "राहील": 9732,
      "काची": 9733,
      "मट": 9734,
      "यण": 9735,
      "आजार": 9736,
      "करणारा": 9737,
      "नाटका": 9738,
      "जागी": 9739,
      "शाखे": 9740,
      "आशा": 9741,
      "पाहायला": 9742,
      "होतील": 9743,
      "बरेच": 9744,
      "छत्र": 9745,
      "ार्": 9746,
      "स्टो": 9747,
      "श्‍": 9748,
      "वैय": 9749,
      "खात्री": 9750,
      "देते": 9751,
      "राग": 9752,
      "महो": 9753,
      "कता": 9754,
      "सातारा": 9755,
      "देह": 9756,
      "आंबेडकर": 9757,
      "नाट्य": 9758,
      "ांकडून": 9759,
      "re": 9760,
      "स्वागत": 9761,
      "कॅमे": 9762,
      "17": 9763,
      "फरक": 9764,
      "दररोज": 9765,
      "ंगे": 9766,
      "क्रमां": 9767,
      "महिने": 9768,
      "नातून": 9769,
      "सोयी": 9770,
      "दिवासी": 9771,
      "डाय": 9772,
      "दिवसांपासून": 9773,
      "आरक्षण": 9774,
      "भरपूर": 9775,
      "तुलनेत": 9776,
      "ंतर्गत": 9777,
      "ध्व": 9778,
      "वेगळी": 9779,
      "न्ट": 9780,
      "नमूद": 9781,
      "पाप": 9782,
      "क्षेप": 9783,
      "पैसा": 9784,
      "जाणाऱ्या": 9785,
      "विकसित": 9786,
      "व्यवस्थाप": 9787,
      "st": 9788,
      "देवा": 9789,
      "म्हणणे": 9790,
      "मधु": 9791,
      "पुस्तक": 9792,
      "करार": 9793,
      "कने": 9794,
      "सर्गिक": 9795,
      "वजन": 9796,
      "आदिवासी": 9797,
      "भरून": 9798,
      "टाळा": 9799,
      "तृ": 9800,
      "13": 9801,
      "स्वामी": 9802,
      "ंडर": 9803,
      "दारू": 9804,
      "कारखा": 9805,
      "तज्ज्ञ": 9806,
      "मार्गदर्शन": 9807,
      "मोड": 9808,
      "चौक": 9809,
      "पुण्यात": 9810,
      "थोडे": 9811,
      "संपाद": 9812,
      "ओढ": 9813,
      "ज्ज": 9814,
      "कर्णधार": 9815,
      "कविता": 9816,
      "कदम": 9817,
      "नक्कीच": 9818,
      "समितीच्या": 9819,
      "झाल्यास": 9820,
      "नंबर": 9821,
      "७०": 9822,
      "सायकल": 9823,
      "प्रसार": 9824,
      "संयुक्त": 9825,
      "उन्हा": 9826,
      "रड": 9827,
      "अपेक्षित": 9828,
      "दुसरीकडे": 9829,
      "३५": 9830,
      "संकेत": 9831,
      "म्हणाला": 9832,
      "त्यामध्ये": 9833,
      "वर्षांपूर्वी": 9834,
      "ऑपरे": 9835,
      "शिर": 9836,
      "काचा": 9837,
      "आढावा": 9838,
      "कोळ": 9839,
      "मान्यता": 9840,
      "मंजुरी": 9841,
      "रॅ": 9842,
      "दगड": 9843,
      "संमेल": 9844,
      "पडत": 9845,
      "काँग्रेसच्या": 9846,
      "दुचाकी": 9847,
      "सकार": 9848,
      "खळ": 9849,
      "मालम": 9850,
      "रोहित": 9851,
      "आशि": 9852,
      "मटा": 9853,
      "ग्री": 9854,
      "याचिका": 9855,
      "स्फोट": 9856,
      "हंगा": 9857,
      "णार्थ": 9858,
      "Lo": 9859,
      "महिन्यां": 9860,
      "अफ": 9861,
      "कर्णी": 9862,
      "शुल्क": 9863,
      ",’": 9864,
      "निषे": 9865,
      "कोसळ": 9866,
      "उभ": 9867,
      "घेणार": 9868,
      "अभिया": 9869,
      "गाने": 9870,
      "डोंग": 9871,
      "स्वप्न": 9872,
      "नसून": 9873,
      "दोघे": 9874,
      "प्रवासी": 9875,
      "भग": 9876,
      "सेट": 9877,
      "स्वातंत्र्य": 9878,
      "नारायण": 9879,
      "विराट": 9880,
      "कार्यरत": 9881,
      "बलात्": 9882,
      "उडा": 9883,
      "पीठा": 9884,
      "म्हणूनच": 9885,
      "पिंपरी": 9886,
      "एअर": 9887,
      "गोल": 9888,
      "सावर": 9889,
      "झाल्यावर": 9890,
      "आधुनिक": 9891,
      "जागृ": 9892,
      "चन": 9893,
      "गोड": 9894,
      "ऱ्यांना": 9895,
      "समाधान": 9896,
      "आक्रम": 9897,
      "ट्टी": 9898,
      "वाहतु": 9899,
      "अरु": 9900,
      "तीच": 9901,
      "आस": 9902,
      "बॉल": 9903,
      "प्लॅ": 9904,
      "सेने": 9905,
      "ळु": 9906,
      "हीम": 9907,
      "शेतकऱ्यांना": 9908,
      "देता": 9909,
      "सकारात्मक": 9910,
      "रुपयांचा": 9911,
      "मय": 9912,
      "स्तर": 9913,
      "नू": 9914,
      "प्रशासन": 9915,
      "लाई": 9916,
      "देताना": 9917,
      "लोकांनी": 9918,
      "करेल": 9919,
      "बाळासाहेब": 9920,
      "असणाऱ्या": 9921,
      "घसर": 9922,
      "विंद": 9923,
      "मागण्या": 9924,
      "सवाल": 9925,
      "इतका": 9926,
      "विभागात": 9927,
      "कोल": 9928,
      "यांच्याकडे": 9929,
      "ट्रा": 9930,
      "चाच": 9931,
      "सदर": 9932,
      "्यातून": 9933,
      "पांडे": 9934,
      "साधन": 9935,
      "नागरिकांनी": 9936,
      "दहशतवादी": 9937,
      "उद": 9938,
      "परिषदेत": 9939,
      "८०": 9940,
      "अब्": 9941,
      "वर्ल्ड": 9942,
      "मारहाण": 9943,
      "मूल्य": 9944,
      "सिड": 9945,
      "आर्": 9946,
      "जाव": 9947,
      "वेध": 9948,
      "चम": 9949,
      "्मी": 9950,
      "संघर्ष": 9951,
      "कपडे": 9952,
      "24": 9953,
      "मुख्या": 9954,
      "णीव": 9955,
      "आवश्यकता": 9956,
      "अनुभ": 9957,
      "साथ": 9958,
      "यादव": 9959,
      "याकडे": 9960,
      "लेक्": 9961,
      "कायदेशीर": 9962,
      "वते": 9963,
      "माहितीनुसार": 9964,
      "लेट": 9965,
      "नैसर्गिक": 9966,
      "ट्रॅ": 9967,
      "केल्याचे": 9968,
      "साइट": 9969,
      "्डा": 9970,
      "मानवी": 9971,
      "लास": 9972,
      "अधी": 9973,
      "प्रत्यक्षात": 9974,
      "पहिल्यांदा": 9975,
      "ठिकाण": 9976,
      "साकार": 9977,
      "सुधारणा": 9978,
      "मुस्लि": 9979,
      "करायची": 9980,
      "ड्रा": 9981,
      "भाजपने": 9982,
      "युनि": 9983,
      "कांकडून": 9984,
      "बहुतां": 9985,
      "जुन": 9986,
      "आलेला": 9987,
      "त्तम": 9988,
      "नाने": 9989,
      "याप्रकरणी": 9990,
      "बातमी": 9991,
      "लावली": 9992,
      "सामान": 9993,
      "तप": 9994,
      "तीच्या": 9995,
      "जळगाव": 9996,
      "उर": 9997,
      "मालिका": 9998,
      "नियुक्ती": 9999,
      "वडील": 10000,
      "पाने": 10001,
      "पेट्रोल": 10002,
      "ऑनलाईन": 10003,
      "व्यवसा": 10004,
      "पर्यट": 10005,
      "त्ये": 10006,
      "णि": 10007,
      "पाहणी": 10008,
      "रेल": 10009,
      "चाह": 10010,
      "विभागाचे": 10011,
      "आल्यानंतर": 10012,
      "पदी": 10013,
      "रोप": 10014,
      "श्रा": 10015,
      "सोलापूर": 10016,
      "प्रदू": 10017,
      "सांगली": 10018,
      "शकेल": 10019,
      "छत्रपती": 10020,
      "शनल": 10021,
      "करि": 10022,
      "सुख": 10023,
      "नगरसेव": 10024,
      "कर्‍": 10025,
      "कारणा": 10026,
      "नसते": 10027,
      "फुल": 10028,
      "लावले": 10029,
      "क्तिक": 10030,
      "ading": 10031,
      "दिलं": 10032,
      "चर्य": 10033,
      "मोहन": 10034,
      "सुरेश": 10035,
      "टरी": 10036,
      "राऊत": 10037,
      "अॅप": 10038,
      "र्जी": 10039,
      "वावर": 10040,
      "लेखक": 10041,
      "पक्षाचे": 10042,
      "प्राणी": 10043,
      "पुरी": 10044,
      "वण्याचा": 10045,
      "भात": 10046,
      "हजारो": 10047,
      "गुला": 10048,
      "तिकी": 10049,
      "युव": 10050,
      "चला": 10051,
      "स्त्रि": 10052,
      "तेवढ": 10053,
      "असतानाच": 10054,
      "वायला": 10055,
      "जगात": 10056,
      "दिवसात": 10057,
      "शंकर": 10058,
      "भ्रष्टा": 10059,
      "भरातील": 10060,
      "रणा": 10061,
      ",'": 10062,
      "नियमा": 10063,
      "अग्": 10064,
      "चिंता": 10065,
      "मिळवून": 10066,
      "भारताच्या": 10067,
      "ारे": 10068,
      "सोसायटी": 10069,
      "साला": 10070,
      "स्थळी": 10071,
      "निवडणुकीच्या": 10072,
      "प्रेस": 10073,
      "आयपी": 10074,
      "नेहमीच": 10075,
      "यांवर": 10076,
      "पार्टी": 10077,
      "तेथील": 10078,
      "धू": 10079,
      "पांढ": 10080,
      "दत्त": 10081,
      "वाटप": 10082,
      "सूर्य": 10083,
      "वैयक्तिक": 10084,
      "आयटी": 10085,
      "गरम": 10086,
      "ऱ्यांनी": 10087,
      "तुला": 10088,
      "प्रभावी": 10089,
      "खाते": 10090,
      "हाता": 10091,
      "्मा": 10092,
      "आश्वासन": 10093,
      "मौ": 10094,
      "णार्‍या": 10095,
      "पासूनच": 10096,
      "लंदाजी": 10097,
      "भ्रष्टाचार": 10098,
      "मॉडेल": 10099,
      "आफ": 10100,
      "ट्ट": 10101,
      "दरवर्षी": 10102,
      "ण्ड": 10103,
      "२९": 10104,
      "कुटुंबा": 10105,
      "याशिवाय": 10106,
      "णीय": 10107,
      "त्सव": 10108,
      "दिवसांपूर्वी": 10109,
      "३१": 10110,
      "घाला": 10111,
      "सहन": 10112,
      "ंगी": 10113,
      "लप": 10114,
      "चहा": 10115,
      "हिंदी": 10116,
      "असूनही": 10117,
      "कंत्रा": 10118,
      "प्रभाव": 10119,
      "मोट": 10120,
      "आयुष्य": 10121,
      "ंशी": 10122,
      "सिंध": 10123,
      "संचाल": 10124,
      "Loading": 10125,
      "बिन": 10126,
      "जाब": 10127,
      "पहिले": 10128,
      "गावातील": 10129,
      "तेज": 10130,
      "डाव": 10131,
      "देण्याचे": 10132,
      "त्तर": 10133,
      "इंटरनेट": 10134,
      "पेट": 10135,
      "सर्वांना": 10136,
      "गुणव": 10137,
      "णाऱया": 10138,
      "हजर": 10139,
      "शिवसेनेचे": 10140,
      "ऑफि": 10141,
      "क्रा": 10142,
      "कडील": 10143,
      "संशोधन": 10144,
      "नवे": 10145,
      "पालिकेच्या": 10146,
      "बहि": 10147,
      "====": 10148,
      "एके": 10149,
      "काढले": 10150,
      "वगळ": 10151,
      "पार्क": 10152,
      "युवा": 10153,
      "विधे": 10154,
      "चाचणी": 10155,
      "वनस्प": 10156,
      "जप्त": 10157,
      "कागदपत्र": 10158,
      "तुझ": 10159,
      "दुर्ग": 10160,
      "नेतृत्वा": 10161,
      "तसंच": 10162,
      "धम": 10163,
      "थोडा": 10164,
      "कडी": 10165,
      "दिशेने": 10166,
      "आजच्या": 10167,
      "उज": 10168,
      "डिक": 10169,
      "नितीन": 10170,
      "सर्वे": 10171,
      "करणारी": 10172,
      "आयडी": 10173,
      "कार्यक्रमात": 10174,
      "चळ": 10175,
      "गणपती": 10176,
      "पर्यावरण": 10177,
      "सरासरी": 10178,
      "वृत्तसंस्था": 10179,
      "कुलकर्णी": 10180,
      "पदवी": 10181,
      "निंग": 10182,
      "चंद्रकांत": 10183,
      "चव": 10184,
      "ध्ये": 10185,
      "दोष": 10186,
      "अंतर": 10187,
      "ग्रहा": 10188,
      "चत": 10189,
      "ंबि": 10190,
      "फेसबुक": 10191,
      "ठरा": 10192,
      "कामका": 10193,
      "ासाठी": 10194,
      "क्रो": 10195,
      "वाहतुकी": 10196,
      "भारती": 10197,
      "महानगर": 10198,
      "पूल": 10199,
      "मंडळाच्या": 10200,
      "चिंच": 10201,
      "प्रमाणावर": 10202,
      "विमा": 10203,
      "काढण्यात": 10204,
      "नेही": 10205,
      "ch": 10206,
      "कोंडी": 10207,
      "पला": 10208,
      "प्रतिबंध": 10209,
      "डिझा": 10210,
      "किलोमीटर": 10211,
      "सोबतच": 10212,
      "नाराजी": 10213,
      "आहार": 10214,
      "मंत्रालया": 10215,
      "मिनिट": 10216,
      "गेट": 10217,
      "वाही": 10218,
      "केदार": 10219,
      "घ्यावी": 10220,
      "महत्वाचे": 10221,
      "येथून": 10222,
      "कोर्टात": 10223,
      "पाणीपुरवठा": 10224,
      "महाराष्ट्रातील": 10225,
      "तालुका": 10226,
      "जागां": 10227,
      "am": 10228,
      "वेतन": 10229,
      "आश्चर्य": 10230,
      "परंपरा": 10231,
      "जाणीव": 10232,
      "चंद": 10233,
      "गोळी": 10234,
      "वाढली": 10235,
      "तेचा": 10236,
      "वाटतं": 10237,
      "नोटा": 10238,
      "मिता": 10239,
      "गाळ": 10240,
      "धारा": 10241,
      "वेगळा": 10242,
      "तरतू": 10243,
      "पहाटे": 10244,
      "आधारित": 10245,
      "कौतुक": 10246,
      "लमध्ये": 10247,
      "गला": 10248,
      "सर्‍या": 10249,
      "जगातील": 10250,
      "पद्धत": 10251,
      "वाजे": 10252,
      "संस": 10253,
      "नंदा": 10254,
      "विभागीय": 10255,
      "कोर्टाने": 10256,
      "देशाच्या": 10257,
      "ग्राहक": 10258,
      "तिची": 10259,
      "लक्ष्मी": 10260,
      "वर्षीय": 10261,
      "अण्": 10262,
      "त्याचबरोबर": 10263,
      "यास": 10264,
      "ओला": 10265,
      "रांना": 10266,
      "गायकवाड": 10267,
      "गंगा": 10268,
      "द्यावे": 10269,
      "माता": 10270,
      "गोवा": 10271,
      "शंका": 10272,
      "टाइ": 10273,
      "टीस": 10274,
      "ंमुळे": 10275,
      "पंचाय": 10276,
      "ठरले": 10277,
      "रत्ना": 10278,
      "नौ": 10279,
      "सांभा": 10280,
      "ग्रामस्थ": 10281,
      "फुले": 10282,
      "आकडे": 10283,
      "पक्षाच्या": 10284,
      "लोड": 10285,
      "विष्ट": 10286,
      "तालुक्यात": 10287,
      "लागतात": 10288,
      "लिवूड": 10289,
      "काद": 10290,
      "पाया": 10291,
      "मुलाख": 10292,
      "सज्ज": 10293,
      "खेड": 10294,
      "अभिनेता": 10295,
      "शिरा": 10296,
      "संदेश": 10297,
      "वाच्या": 10298,
      "सातत्याने": 10299,
      "विधी": 10300,
      "भाजपला": 10301,
      "टेड": 10302,
      "देसाई": 10303,
      ":)": 10304,
      "थक": 10305,
      "फिल्": 10306,
      "धन्य": 10307,
      "संकल्प": 10308,
      "धार्": 10309,
      "बाज": 10310,
      "दिलीप": 10311,
      "कांब": 10312,
      "किल्": 10313,
      "गोदर": 10314,
      "पिक": 10315,
      "मदती": 10316,
      "१९९": 10317,
      "तिथ": 10318,
      "शैली": 10319,
      "ह्य": 10320,
      "वरच्या": 10321,
      "मीडियावर": 10322,
      "प्रतिष्ठा": 10323,
      "अँड": 10324,
      "वाक": 10325,
      "निकाला": 10326,
      "विद्यार्थ्यांनी": 10327,
      "सहाय्य": 10328,
      "बाबी": 10329,
      "सांगून": 10330,
      "दहशतवाद": 10331,
      "जोडी": 10332,
      "हिता": 10333,
      "करायचा": 10334,
      "नाकार": 10335,
      "कोह": 10336,
      "घेण्याची": 10337,
      "योगी": 10338,
      "मशी": 10339,
      "महसूल": 10340,
      "काढा": 10341,
      "वर्णन": 10342,
      "द्वि": 10343,
      "प्रकारचे": 10344,
      "उपयुक्त": 10345,
      "नातेवाई": 10346,
      "माहित": 10347,
      "शाह": 10348,
      "खोल": 10349,
      "दिशा": 10350,
      "तिचे": 10351,
      "तरतूद": 10352,
      "काळे": 10353,
      "व्यास": 10354,
      "नागरी": 10355,
      "सुट्टी": 10356,
      "डीओ": 10357,
      "उंची": 10358,
      "हाच": 10359,
      "सेवे": 10360,
      "गोळा": 10361,
      "धानी": 10362,
      "कालावधीत": 10363,
      "40": 10364,
      "राजीनामा": 10365,
      "वनस्पती": 10366,
      "जम्": 10367,
      "नव्याने": 10368,
      "वासी": 10369,
      "भविष्यात": 10370,
      "फेड": 10371,
      "सुरूवात": 10372,
      "प्रसंगी": 10373,
      "माळ": 10374,
      "मतदारसंघ": 10375,
      "दादा": 10376,
      "विनोद": 10377,
      "त्यामुळेच": 10378,
      "भाडे": 10379,
      "मिश्र": 10380,
      "शब्दा": 10381,
      "उदाहरणार्थ": 10382,
      "पट्ट": 10383,
      "प्ता": 10384,
      "मेश": 10385,
      "व्हॉ": 10386,
      "जबाबदार": 10387,
      "आढळून": 10388,
      "सलमान": 10389,
      "राष्ट्रपती": 10390,
      "100": 10391,
      "एशन": 10392,
      "उभा": 10393,
      "तरुणी": 10394,
      "लेश": 10395,
      "त्यापैकी": 10396,
      "भरती": 10397,
      "सेना": 10398,
      "प्रगती": 10399,
      "सोन्या": 10400,
      "्ज": 10401,
      "अभियं": 10402,
      "तन": 10403,
      "काढला": 10404,
      "निवास": 10405,
      "कंपनीने": 10406,
      "कूर": 10407,
      "वणुकी": 10408,
      "गाई": 10409,
      "ठ्ठ": 10410,
      "विदर्भ": 10411,
      "पाण्याची": 10412,
      "ज्यो": 10413,
      "इच्छित": 10414,
      "अगोदर": 10415,
      "अमेरिक": 10416,
      "वरच": 10417,
      "णीत": 10418,
      "खून": 10419,
      "अधिकृत": 10420,
      "हक्क": 10421,
      "गौर": 10422,
      "छोट्या": 10423,
      "अंगा": 10424,
      "भारी": 10425,
      "संकट": 10426,
      "पूर्वक": 10427,
      "उत्सु": 10428,
      "बहुते": 10429,
      "स्थायी": 10430,
      "प्रकारची": 10431,
      "डोळे": 10432,
      "गन": 10433,
      "देतात": 10434,
      "वेदना": 10435,
      "जली": 10436,
      "ट्रॉ": 10437,
      "भारताने": 10438,
      "सत्र": 10439,
      "वृक्ष": 10440,
      "विवाह": 10441,
      "आठवड्यात": 10442,
      "समितीने": 10443,
      "स्को": 10444,
      "कार्यकारी": 10445,
      "म्ब": 10446,
      "कोणाला": 10447,
      "फूट": 10448,
      "आदर्श": 10449,
      "्मण": 10450,
      "the": 10451,
      "गुन्हेगार": 10452,
      "बहुतांश": 10453,
      "बऱ्या": 10454,
      "यांच्यात": 10455,
      "द्यावर": 10456,
      "इरा": 10457,
      "तेने": 10458,
      "राहून": 10459,
      "अरे": 10460,
      "विर": 10461,
      "मासे": 10462,
      "ांशी": 10463,
      "भाई": 10464,
      "कोठ": 10465,
      "वढा": 10466,
      "रंज": 10467,
      "ताक": 10468,
      "४५": 10469,
      "वासा": 10470,
      "नमध्ये": 10471,
      "शेतकर्‍": 10472,
      "क्रांती": 10473,
      "टप्प्यात": 10474,
      "मेळा": 10475,
      "कर्नाटक": 10476,
      "अॅड": 10477,
      "सुपर": 10478,
      "il": 10479,
      "ठरला": 10480,
      "धडक": 10481,
      "पोलिसांच्या": 10482,
      "देण्या": 10483,
      "शासनाने": 10484,
      "पुढच्या": 10485,
      "एक्स": 10486,
      "कोहली": 10487,
      "सूर": 10488,
      "वसु": 10489,
      "सकाळ": 10490,
      "राष्ट्रवादीचे": 10491,
      "to": 10492,
      "प्रसाद": 10493,
      "22": 10494,
      "ल्याच्या": 10495,
      "द्रा": 10496,
      "पिंग": 10497,
      "सौंद": 10498,
      "वण्याची": 10499,
      "लंबित": 10500,
      "खरी": 10501,
      "अहमद": 10502,
      "लाखो": 10503,
      "विणे": 10504,
      "मधल्या": 10505,
      "मेह": 10506,
      "जणांना": 10507,
      "भोसले": 10508,
      "बिहार": 10509,
      "विक्रम": 10510,
      "आदित्य": 10511,
      "दबा": 10512,
      "होण्यासाठी": 10513,
      "नवर": 10514,
      "पेश": 10515,
      "लोकल": 10516,
      "तिकीट": 10517,
      "आमची": 10518,
      "जेवण": 10519,
      "मनुष्य": 10520,
      "बूत": 10521,
      "पेपर": 10522,
      "थर": 10523,
      "अट": 10524,
      "अडथ": 10525,
      "धार्मिक": 10526,
      "ळावर": 10527,
      "मोहीम": 10528,
      "महत्त्वाची": 10529,
      "तेच्या": 10530,
      "गडी": 10531,
      "सलग": 10532,
      "संध्याकाळी": 10533,
      "2018": 10534,
      "पारं": 10535,
      "समितीचे": 10536,
      "दीर्": 10537,
      "गू": 10538,
      "जागृती": 10539,
      "वर्धन": 10540,
      "चक": 10541,
      "दुसर": 10542,
      "मतदा": 10543,
      "राहिला": 10544,
      "प्रश्‍": 10545,
      "तुट": 10546,
      "थ्या": 10547,
      "दाखवून": 10548,
      "ंचं": 10549,
      "धीर": 10550,
      "शौ": 10551,
      "गटा": 10552,
      "पुरावा": 10553,
      "कलम": 10554,
      "स्कूल": 10555,
      "क्रिय": 10556,
      "पटेल": 10557,
      "असावा": 10558,
      "रेशन": 10559,
      "कीत": 10560,
      "जम्मू": 10561,
      "बचा": 10562,
      "मालक": 10563,
      "संदीप": 10564,
      "ग्राहकांना": 10565,
      "महिना": 10566,
      "सांस्": 10567,
      "चित्रपटात": 10568,
      "द्योग": 10569,
      "राजेंद्र": 10570,
      "पाऊल": 10571,
      "मालमत्ता": 10572,
      "पार्ट": 10573,
      "मार्केट": 10574,
      "कृतिक": 10575,
      "घाटन": 10576,
      "भारतातील": 10577,
      "एवढे": 10578,
      "सुवर्ण": 10579,
      "लेखा": 10580,
      "el": 10581,
      "चाली": 10582,
      "सुभाष": 10583,
      "स्तीत": 10584,
      "विज्ञान": 10585,
      "वाजा": 10586,
      "लेखन": 10587,
      "हार्": 10588,
      "नगरा": 10589,
      "ऱ्यावर": 10590,
      "वेळेत": 10591,
      "ion": 10592,
      "अश्": 10593,
      "सुरुवातीला": 10594,
      "इमारत": 10595,
      "पाण्यात": 10596,
      "अवघ्या": 10597,
      "सीमा": 10598,
      "तांत्रिक": 10599,
      "एकही": 10600,
      "ुत": 10601,
      "एकदम": 10602,
      "रूम": 10603,
      "पंध": 10604,
      "नम": 10605,
      "पिढी": 10606,
      "मल्": 10607,
      "दरात": 10608,
      "वणार": 10609,
      "थंड": 10610,
      "प्रतिमा": 10611,
      "ाराम": 10612,
      "डीच": 10613,
      "लोकांच्या": 10614,
      "लंय": 10615,
      "कंपन्या": 10616,
      "21": 10617,
      "निदर्श": 10618,
      "वाटले": 10619,
      "व्यापारी": 10620,
      "परिणामी": 10621,
      "लोकशाही": 10622,
      "बंगा": 10623,
      "तंत्रज्ञान": 10624,
      "सुरक्षे": 10625,
      "मिळू": 10626,
      "व्याया": 10627,
      "माध्यमा": 10628,
      "ताण": 10629,
      "तिहासिक": 10630,
      "महापालिकेने": 10631,
      "नृ": 10632,
      "षक": 10633,
      "्यांसाठी": 10634,
      "वतात": 10635,
      "दीपक": 10636,
      "जरे": 10637,
      "सांस्कृतिक": 10638,
      "उपस्थिती": 10639,
      "पूजा": 10640,
      "आणून": 10641,
      "करणं": 10642,
      "मदतीने": 10643,
      "मुलांच्या": 10644,
      "पल": 10645,
      "ब्लॉ": 10646,
      "शुद्ध": 10647,
      "अधिकाऱ्यांनी": 10648,
      "प्रमाणपत्र": 10649,
      "एकी": 10650,
      "ol": 10651,
      "पगार": 10652,
      "व्यवस्थापन": 10653,
      "आरक्ष": 10654,
      "धारी": 10655,
      "धक्कादायक": 10656,
      "साठा": 10657,
      "स्वि": 10658,
      "स्वार": 10659,
      "झर": 10660,
      "प्रदेशा": 10661,
      "अतिक": 10662,
      "अत्याचार": 10663,
      "पुढा": 10664,
      "कधीच": 10665,
      "उपाध्यक्ष": 10666,
      "मागित": 10667,
      "अग्नि": 10668,
      "स्मृ": 10669,
      "दस्त": 10670,
      "हस्त": 10671,
      "वैध": 10672,
      "आणले": 10673,
      "कडक": 10674,
      "विषयावर": 10675,
      "इड": 10676,
      "गोंधळ": 10677,
      "झाल्याची": 10678,
      "अग्र": 10679,
      "कान": 10680,
      "जातं": 10681,
      "ऐतिहासिक": 10682,
      "धित": 10683,
      "गाड्या": 10684,
      "शुभे": 10685,
      "उर्वरित": 10686,
      "झील": 10687,
      "जसे": 10688,
      "टीएम": 10689,
      "बॉलिवूड": 10690,
      "ंसह": 10691,
      "ंबिवली": 10692,
      "जान": 10693,
      "होई": 10694,
      "मिळून": 10695,
      "द्यावी": 10696,
      "फ्रा": 10697,
      "प्लास्टिक": 10698,
      "डोंबिवली": 10699,
      "हीच": 10700,
      "सन्मान": 10701,
      "साधला": 10702,
      "याबद्दल": 10703,
      "मारी": 10704,
      "भेद": 10705,
      "स्तरावर": 10706,
      "दिलासा": 10707,
      "आमचा": 10708,
      "रत्नागिरी": 10709,
      "सर्वसाधारण": 10710,
      "प्रदान": 10711,
      "पदाधिकारी": 10712,
      "उद्देश": 10713,
      "ेल": 10714,
      "बोट": 10715,
      "अतिक्र": 10716,
      "मुद्दे": 10717,
      "राजकार": 10718,
      "निषेध": 10719,
      "स्पर्ध": 10720,
      "बीड": 10721,
      "राहत": 10722,
      "होण्या": 10723,
      "ठेवला": 10724,
      "तणा": 10725,
      "टाकून": 10726,
      "घडा": 10727,
      "‌ि": 10728,
      "राहू": 10729,
      "जेथे": 10730,
      "लिहिले": 10731,
      "वाहने": 10732,
      "पर्यटन": 10733,
      "प्रेमी": 10734,
      "स्टेट": 10735,
      "शात": 10736,
      "रांनी": 10737,
      "पत्ता": 10738,
      "कॉर्": 10739,
      "नीट": 10740,
      "संभाजी": 10741,
      "संगण": 10742,
      "आकाश": 10743,
      "रळ": 10744,
      "मृतदेह": 10745,
      "लावला": 10746,
      "नातील": 10747,
      "फर्": 10748,
      "गेलो": 10749,
      "मागा": 10750,
      "किरण": 10751,
      "आमचे": 10752,
      "नॅशनल": 10753,
      "ट्रक": 10754,
      "मध्यम": 10755,
      "खरा": 10756,
      "फेरीत": 10757,
      "धीश": 10758,
      "and": 10759,
      "खूपच": 10760,
      "परिषदेच्या": 10761,
      "कांदा": 10762,
      "रिझ": 10763,
      "सुच": 10764,
      "स्ना": 10765,
      "त्याचं": 10766,
      "पाण्याचा": 10767,
      "सर्वोत्तम": 10768,
      "छाया": 10769,
      "पालन": 10770,
      "देतो": 10771,
      "23": 10772,
      "ार्थ": 10773,
      "कधीही": 10774,
      "वर्क": 10775,
      "आभार": 10776,
      "जीत": 10777,
      "घरे": 10778,
      "किशो": 10779,
      "यांनीही": 10780,
      "बोला": 10781,
      "संघाचे": 10782,
      "रशियन": 10783,
      "ग्रुप": 10784,
      "मिनिटे": 10785,
      "प्रका": 10786,
      "भागी": 10787,
      "केल्याची": 10788,
      "मुस्लिम": 10789,
      "शीत": 10790,
      "ांतील": 10791,
      "धड": 10792,
      "सगळी": 10793,
      "पली": 10794,
      "सेंटर": 10795,
      "धोनी": 10796,
      "ांमुळे": 10797,
      "वाणी": 10798,
      "गुणवत्ता": 10799,
      "हेही": 10800,
      "आदेशा": 10801,
      "त्मक": 10802,
      "मारा": 10803,
      "भाषण": 10804,
      "पीक": 10805,
      "प्या": 10806,
      "हवामान": 10807,
      "वेगाने": 10808,
      "तापमान": 10809,
      "पावसाने": 10810,
      "आल्याचे": 10811,
      "समजा": 10812,
      "बलात्कार": 10813,
      "हेतू": 10814,
      "मानी": 10815,
      "आपलं": 10816,
      "जड": 10817,
      "महेश": 10818,
      "मर्यादा": 10819,
      "इस्": 10820,
      "धन्यवाद": 10821,
      "हळ": 10822,
      "२०१४": 10823,
      "जबर": 10824,
      "ज्यु": 10825,
[...]
